{
  "version": "1.0",
  "truncation": null,
  "padding": null,
  "added_tokens": [
    {
      "id": 0,
      "content": "[UNK]",
      "single_word": false,
      "lstrip": false,
      "rstrip": false,
      "normalized": false,
      "special": true
    },
    {
      "id": 1,
      "content": "[PAD]",
      "single_word": false,
      "lstrip": false,
      "rstrip": false,
      "normalized": false,
      "special": true
    },
    {
      "id": 2,
      "content": "[BOS]",
      "single_word": false,
      "lstrip": false,
      "rstrip": false,
      "normalized": false,
      "special": true
    },
    {
      "id": 3,
      "content": "[EOS]",
      "single_word": false,
      "lstrip": false,
      "rstrip": false,
      "normalized": false,
      "special": true
    }
  ],
  "normalizer": {
    "type": "Sequence",
    "normalizers": [
      {
        "type": "NFC"
      },
      {
        "type": "Lowercase"
      }
    ]
  },
  "pre_tokenizer": {
    "type": "Whitespace"
  },
  "post_processor": null,
  "decoder": null,
  "model": {
    "type": "WordPiece",
    "unk_token": "[UNK]",
    "continuing_subword_prefix": "##",
    "max_input_chars_per_word": 100,
    "vocab": {
      "[UNK]": 0,
      "[PAD]": 1,
      "[BOS]": 2,
      "[EOS]": 3,
      "!": 4,
      "\"": 5,
      "#": 6,
      "$": 7,
      "%": 8,
      "&": 9,
      "'": 10,
      "(": 11,
      ")": 12,
      "*": 13,
      "+": 14,
      ",": 15,
      "-": 16,
      ".": 17,
      "/": 18,
      "0": 19,
      "1": 20,
      "2": 21,
      "3": 22,
      "4": 23,
      "5": 24,
      "6": 25,
      "7": 26,
      "8": 27,
      "9": 28,
      ":": 29,
      ";": 30,
      "<": 31,
      "=": 32,
      ">": 33,
      "?": 34,
      "@": 35,
      "[": 36,
      "\\": 37,
      "]": 38,
      "^": 39,
      "_": 40,
      "`": 41,
      "a": 42,
      "b": 43,
      "c": 44,
      "d": 45,
      "e": 46,
      "f": 47,
      "g": 48,
      "h": 49,
      "i": 50,
      "j": 51,
      "k": 52,
      "l": 53,
      "m": 54,
      "n": 55,
      "o": 56,
      "p": 57,
      "q": 58,
      "r": 59,
      "s": 60,
      "t": 61,
      "u": 62,
      "v": 63,
      "w": 64,
      "x": 65,
      "y": 66,
      "z": 67,
      "{": 68,
      "|": 69,
      "}": 70,
      "~": 71,
      "": 72,
      "": 73,
      "": 74,
      "": 75,
      "": 76,
      "": 77,
      "": 78,
      "": 79,
      "": 80,
      "": 81,
      "": 82,
      "": 83,
      "": 84,
      "": 85,
      "": 86,
      "": 87,
      "": 88,
      "": 89,
      "": 90,
      "": 91,
      "": 92,
      "": 93,
      "": 94,
      "": 95,
      "": 96,
      "": 97,
      "": 98,
      "": 99,
      "": 100,
      "": 101,
      "": 102,
      "": 103,
      "¡": 104,
      "¢": 105,
      "£": 106,
      "¤": 107,
      "¥": 108,
      "¦": 109,
      "§": 110,
      "¨": 111,
      "©": 112,
      "ª": 113,
      "«": 114,
      "¬": 115,
      "­": 116,
      "®": 117,
      "¯": 118,
      "°": 119,
      "±": 120,
      "²": 121,
      "³": 122,
      "´": 123,
      "µ": 124,
      "¶": 125,
      "·": 126,
      "¸": 127,
      "¹": 128,
      "º": 129,
      "»": 130,
      "¼": 131,
      "½": 132,
      "¾": 133,
      "¿": 134,
      "×": 135,
      "ß": 136,
      "à": 137,
      "á": 138,
      "â": 139,
      "ã": 140,
      "ä": 141,
      "å": 142,
      "æ": 143,
      "ç": 144,
      "è": 145,
      "é": 146,
      "ê": 147,
      "ë": 148,
      "ì": 149,
      "í": 150,
      "î": 151,
      "ï": 152,
      "ð": 153,
      "ñ": 154,
      "ò": 155,
      "ó": 156,
      "ô": 157,
      "õ": 158,
      "ö": 159,
      "÷": 160,
      "ø": 161,
      "ù": 162,
      "ú": 163,
      "û": 164,
      "ü": 165,
      "ý": 166,
      "þ": 167,
      "ÿ": 168,
      "ā": 169,
      "ă": 170,
      "ą": 171,
      "ć": 172,
      "ĉ": 173,
      "ċ": 174,
      "č": 175,
      "ď": 176,
      "đ": 177,
      "ē": 178,
      "ĕ": 179,
      "ė": 180,
      "ę": 181,
      "ě": 182,
      "ĝ": 183,
      "ğ": 184,
      "ġ": 185,
      "ģ": 186,
      "ħ": 187,
      "ĩ": 188,
      "ī": 189,
      "į": 190,
      "ı": 191,
      "ĵ": 192,
      "ķ": 193,
      "ĸ": 194,
      "ĺ": 195,
      "ļ": 196,
      "ľ": 197,
      "ŀ": 198,
      "ł": 199,
      "ń": 200,
      "ņ": 201,
      "ň": 202,
      "ŋ": 203,
      "ō": 204,
      "ŏ": 205,
      "ő": 206,
      "œ": 207,
      "ŕ": 208,
      "ř": 209,
      "ś": 210,
      "ŝ": 211,
      "ş": 212,
      "š": 213,
      "ţ": 214,
      "ť": 215,
      "ŧ": 216,
      "ũ": 217,
      "ū": 218,
      "ŭ": 219,
      "ů": 220,
      "ű": 221,
      "ų": 222,
      "ŵ": 223,
      "ź": 224,
      "ż": 225,
      "ž": 226,
      "ƒ": 227,
      "ƚ": 228,
      "ơ": 229,
      "ƣ": 230,
      "ư": 231,
      "ƴ": 232,
      "ƶ": 233,
      "ƹ": 234,
      "ƽ": 235,
      "ǎ": 236,
      "ǐ": 237,
      "ǒ": 238,
      "ǔ": 239,
      "ǧ": 240,
      "ǯ": 241,
      "ǰ": 242,
      "ǹ": 243,
      "ǻ": 244,
      "ǽ": 245,
      "ǿ": 246,
      "ȇ": 247,
      "ȏ": 248,
      "ȗ": 249,
      "ș": 250,
      "ț": 251,
      "ȩ": 252,
      "ȫ": 253,
      "ȷ": 254,
      "ȸ": 255,
      "ȹ": 256,
      "ɐ": 257,
      "ɑ": 258,
      "ɔ": 259,
      "ɗ": 260,
      "ə": 261,
      "ɚ": 262,
      "ɛ": 263,
      "ɠ": 264,
      "ɣ": 265,
      "ɨ": 266,
      "ɪ": 267,
      "ɲ": 268,
      "ɳ": 269,
      "ɵ": 270,
      "ɶ": 271,
      "ɷ": 272,
      "ɽ": 273,
      "ɾ": 274,
      "ʀ": 275,
      "ʁ": 276,
      "ʃ": 277,
      "ʊ": 278,
      "ʌ": 279,
      "ʒ": 280,
      "ʡ": 281,
      "ʢ": 282,
      "ʮ": 283,
      "ʰ": 284,
      "ʱ": 285,
      "ʳ": 286,
      "ʴ": 287,
      "ʵ": 288,
      "ʺ": 289,
      "ʻ": 290,
      "ʼ": 291,
      "ʽ": 292,
      "ʾ": 293,
      "ʿ": 294,
      "ˆ": 295,
      "ˇ": 296,
      "ˈ": 297,
      "ː": 298,
      "˗": 299,
      "˘": 300,
      "˙": 301,
      "˚": 302,
      "˛": 303,
      "˜": 304,
      "˝": 305,
      "ˢ": 306,
      "ˮ": 307,
      "˲": 308,
      "˼": 309,
      "˽": 310,
      "˾": 311,
      "́": 312,
      "̃": 313,
      "̆": 314,
      "̇": 315,
      "̍": 316,
      "̐": 317,
      "̤": 318,
      "̥": 319,
      "̨": 320,
      "̱": 321,
      "̳": 322,
      "̶": 323,
      "̸": 324,
      "ͣ": 325,
      "ͨ": 326,
      "ͬ": 327,
      "ͳ": 328,
      "ͷ": 329,
      "ͺ": 330,
      "ͻ": 331,
      "ͼ": 332,
      "΄": 333,
      "ΐ": 334,
      "ά": 335,
      "έ": 336,
      "ή": 337,
      "ί": 338,
      "ΰ": 339,
      "α": 340,
      "β": 341,
      "γ": 342,
      "δ": 343,
      "ε": 344,
      "ζ": 345,
      "η": 346,
      "θ": 347,
      "ι": 348,
      "κ": 349,
      "λ": 350,
      "μ": 351,
      "ν": 352,
      "ξ": 353,
      "ο": 354,
      "π": 355,
      "ρ": 356,
      "ς": 357,
      "σ": 358,
      "τ": 359,
      "υ": 360,
      "φ": 361,
      "χ": 362,
      "ψ": 363,
      "ω": 364,
      "ϊ": 365,
      "ϋ": 366,
      "ό": 367,
      "ύ": 368,
      "ώ": 369,
      "ϣ": 370,
      "ϵ": 371,
      "ϸ": 372,
      "ϻ": 373,
      "а": 374,
      "б": 375,
      "в": 376,
      "г": 377,
      "д": 378,
      "е": 379,
      "ж": 380,
      "з": 381,
      "и": 382,
      "й": 383,
      "к": 384,
      "л": 385,
      "м": 386,
      "н": 387,
      "о": 388,
      "п": 389,
      "р": 390,
      "с": 391,
      "т": 392,
      "у": 393,
      "ф": 394,
      "х": 395,
      "ц": 396,
      "ч": 397,
      "ш": 398,
      "щ": 399,
      "ъ": 400,
      "ы": 401,
      "ь": 402,
      "э": 403,
      "ю": 404,
      "я": 405,
      "ё": 406,
      "ђ": 407,
      "ѓ": 408,
      "є": 409,
      "ѕ": 410,
      "і": 411,
      "ї": 412,
      "ј": 413,
      "љ": 414,
      "њ": 415,
      "ћ": 416,
      "ќ": 417,
      "ў": 418,
      "џ": 419,
      "ѯ": 420,
      "ѷ": 421,
      "ѹ": 422,
      "ґ": 423,
      "ғ": 424,
      "ҙ": 425,
      "қ": 426,
      "ҡ": 427,
      "ң": 428,
      "ҫ": 429,
      "ү": 430,
      "ұ": 431,
      "ҳ": 432,
      "ҵ": 433,
      "һ": 434,
      "ҽ": 435,
      "ә": 436,
      "ӡ": 437,
      "ӣ": 438,
      "ө": 439,
      "ӫ": 440,
      "ӭ": 441,
      "ӱ": 442,
      "ӵ": 443,
      "ӻ": 444,
      "ӿ": 445,
      "ԁ": 446,
      "ԡ": 447,
      "ԥ": 448,
      "ԭ": 449,
      "ա": 450,
      "բ": 451,
      "ժ": 452,
      "լ": 453,
      "խ": 454,
      "ձ": 455,
      "ղ": 456,
      "մ": 457,
      "չ": 458,
      "վ": 459,
      "֪": 460,
      "ֲ": 461,
      "ַ": 462,
      "ָ": 463,
      "ֹ": 464,
      "ֽ": 465,
      "־": 466,
      "ֿ": 467,
      "א": 468,
      "ב": 469,
      "ג": 470,
      "ד": 471,
      "ה": 472,
      "ו": 473,
      "ז": 474,
      "ח": 475,
      "ט": 476,
      "י": 477,
      "ך": 478,
      "כ": 479,
      "ל": 480,
      "ם": 481,
      "מ": 482,
      "ן": 483,
      "נ": 484,
      "ס": 485,
      "ע": 486,
      "ף": 487,
      "פ": 488,
      "צ": 489,
      "ק": 490,
      "ר": 491,
      "ש": 492,
      "ת": 493,
      "׬": 494,
      "׵": 495,
      "׼": 496,
      "،": 497,
      "؛": 498,
      "؟": 499,
      "ء": 500,
      "آ": 501,
      "أ": 502,
      "ؤ": 503,
      "إ": 504,
      "ئ": 505,
      "ا": 506,
      "ب": 507,
      "ة": 508,
      "ت": 509,
      "ث": 510,
      "ج": 511,
      "ح": 512,
      "خ": 513,
      "د": 514,
      "ذ": 515,
      "ر": 516,
      "ز": 517,
      "س": 518,
      "ش": 519,
      "ص": 520,
      "ض": 521,
      "ط": 522,
      "ظ": 523,
      "ع": 524,
      "غ": 525,
      "ـ": 526,
      "ف": 527,
      "ق": 528,
      "ك": 529,
      "ل": 530,
      "م": 531,
      "ن": 532,
      "ه": 533,
      "و": 534,
      "ى": 535,
      "ي": 536,
      "ً": 537,
      "َ": 538,
      "ُ": 539,
      "ِ": 540,
      "ّ": 541,
      "ْ": 542,
      "ٔ": 543,
      "٭": 544,
      "ٷ": 545,
      "پ": 546,
      "چ": 547,
      "ژ": 548,
      "ک": 549,
      "گ": 550,
      "ڱ": 551,
      "ڶ": 552,
      "ں": 553,
      "ھ": 554,
      "ہ": 555,
      "ی": 556,
      "ے": 557,
      "ۡ": 558,
      "ۣ": 559,
      "۰": 560,
      "۱": 561,
      "۲": 562,
      "۳": 563,
      "۴": 564,
      "۵": 565,
      "۶": 566,
      "۸": 567,
      "۹": 568,
      "ۺ": 569,
      "ۿ": 570,
      "ܡ": 571,
      "ܲ": 572,
      "ܵ": 573,
      "ݵ": 574,
      "ݸ": 575,
      "޺": 576,
      "߲": 577,
      "ߵ": 578,
      "߶": 579,
      "߷": 580,
      "߹": 581,
      "߻": 582,
      "ࠬ": 583,
      "ं": 584,
      "अ": 585,
      "आ": 586,
      "क": 587,
      "ग": 588,
      "छ": 589,
      "ज": 590,
      "ट": 591,
      "ण": 592,
      "त": 593,
      "थ": 594,
      "द": 595,
      "न": 596,
      "प": 597,
      "ब": 598,
      "म": 599,
      "य": 600,
      "र": 601,
      "ल": 602,
      "स": 603,
      "ह": 604,
      "ा": 605,
      "ि": 606,
      "ी": 607,
      "ू": 608,
      "ृ": 609,
      "े": 610,
      "ै": 611,
      "ो": 612,
      "्": 613,
      "ॐ": 614,
      "०": 615,
      "२": 616,
      "४": 617,
      "५": 618,
      "ঁ": 619,
      "আ": 620,
      "ক": 621,
      "দ": 622,
      "ম": 623,
      "য": 624,
      "র": 625,
      "ল": 626,
      "স": 627,
      "া": 628,
      "ু": 629,
      "ে": 630,
      "্": 631,
      "୦": 632,
      "୧": 633,
      "୨": 634,
      "୫": 635,
      "୯": 636,
      "ಐ": 637,
      "ಯ": 638,
      "ರ": 639,
      "ವ": 640,
      "ಶ": 641,
      "ಾ": 642,
      "ೈ": 643,
      "್": 644,
      "೦": 645,
      "೧": 646,
      "೨": 647,
      "೪": 648,
      "೫": 649,
      "೭": 650,
      "೯": 651,
      "ം": 652,
      "മ": 653,
      "യ": 654,
      "ല": 655,
      "ള": 656,
      "ാ": 657,
      "ൺ": 658,
      "ก": 659,
      "ข": 660,
      "ค": 661,
      "ง": 662,
      "จ": 663,
      "ฉ": 664,
      "ช": 665,
      "ซ": 666,
      "ญ": 667,
      "ฏ": 668,
      "ณ": 669,
      "ด": 670,
      "ต": 671,
      "ถ": 672,
      "ท": 673,
      "ธ": 674,
      "น": 675,
      "บ": 676,
      "ป": 677,
      "ผ": 678,
      "ฝ": 679,
      "พ": 680,
      "ฟ": 681,
      "ภ": 682,
      "ม": 683,
      "ย": 684,
      "ร": 685,
      "ล": 686,
      "ว": 687,
      "ศ": 688,
      "ษ": 689,
      "ส": 690,
      "ห": 691,
      "อ": 692,
      "ะ": 693,
      "ั": 694,
      "า": 695,
      "ำ": 696,
      "ิ": 697,
      "ี": 698,
      "ึ": 699,
      "ื": 700,
      "ุ": 701,
      "ู": 702,
      "เ": 703,
      "แ": 704,
      "โ": 705,
      "ใ": 706,
      "ไ": 707,
      "ๆ": 708,
      "็": 709,
      "่": 710,
      "้": 711,
      "๊": 712,
      "์": 713,
      "๑": 714,
      "ྭ": 715,
      "ა": 716,
      "ბ": 717,
      "გ": 718,
      "დ": 719,
      "ე": 720,
      "ვ": 721,
      "თ": 722,
      "ი": 723,
      "კ": 724,
      "ლ": 725,
      "მ": 726,
      "ნ": 727,
      "ო": 728,
      "პ": 729,
      "რ": 730,
      "ს": 731,
      "ტ": 732,
      "უ": 733,
      "ფ": 734,
      "ქ": 735,
      "ღ": 736,
      "შ": 737,
      "ც": 738,
      "ხ": 739,
      "ህ": 740,
      "መ": 741,
      "ም": 742,
      "ረ": 743,
      "ር": 744,
      "ስ": 745,
      "ሻ": 746,
      "ቀ": 747,
      "በ": 748,
      "ተ": 749,
      "ት": 750,
      "ቶ": 751,
      "አ": 752,
      "ኣ": 753,
      "እ": 754,
      "ኦ": 755,
      "ክ": 756,
      "ው": 757,
      "ዓ": 758,
      "የ": 759,
      "ይ": 760,
      "ገ": 761,
      "ጨ": 762,
      "ጽ": 763,
      "፣": 764,
      "ᐃ": 765,
      "ᐅ": 766,
      "ᐊ": 767,
      "ᐱ": 768,
      "ᐳ": 769,
      "ᐸ": 770,
      "ᑉ": 771,
      "ᑎ": 772,
      "ᑏ": 773,
      "ᑐ": 774,
      "ᑕ": 775,
      "ᑖ": 776,
      "ᑦ": 777,
      "ᑭ": 778,
      "ᑯ": 779,
      "ᑲ": 780,
      "ᒃ": 781,
      "ᒋ": 782,
      "ᒐ": 783,
      "ᒥ": 784,
      "ᒧ": 785,
      "ᒪ": 786,
      "ᒻ": 787,
      "ᓂ": 788,
      "ᓃ": 789,
      "ᓄ": 790,
      "ᓇ": 791,
      "ᓐ": 792,
      "ᓕ": 793,
      "ᓗ": 794,
      "ᓘ": 795,
      "ᓚ": 796,
      "ᓪ": 797,
      "ᓯ": 798,
      "ᓴ": 799,
      "ᔪ": 800,
      "ᔭ": 801,
      "ᔮ": 802,
      "ᔾ": 803,
      "ᕆ": 804,
      "ᕈ": 805,
      "ᕋ": 806,
      "ᕌ": 807,
      "ᕐ": 808,
      "ᕕ": 809,
      "ᕗ": 810,
      "ᕙ": 811,
      "ᕝ": 812,
      "ᖁ": 813,
      "ᖃ": 814,
      "ᖅ": 815,
      "ᖏ": 816,
      "ᖑ": 817,
      "ᖓ": 818,
      "ᖕ": 819,
      "ᖢ": 820,
      "ᴰ": 821,
      "ᴹ": 822,
      "ᵉ": 823,
      "ᵐ": 824,
      "ᵓ": 825,
      "ḍ": 826,
      "ḥ": 827,
      "ḫ": 828,
      "ḷ": 829,
      "ṃ": 830,
      "ṇ": 831,
      "ṣ": 832,
      "ṩ": 833,
      "ṭ": 834,
      "ṳ": 835,
      "ạ": 836,
      "ả": 837,
      "ấ": 838,
      "ầ": 839,
      "ẩ": 840,
      "ậ": 841,
      "ắ": 842,
      "ẳ": 843,
      "ẻ": 844,
      "ẽ": 845,
      "ế": 846,
      "ề": 847,
      "ể": 848,
      "ễ": 849,
      "ệ": 850,
      "ỉ": 851,
      "ị": 852,
      "ọ": 853,
      "ỏ": 854,
      "ố": 855,
      "ồ": 856,
      "ổ": 857,
      "ỗ": 858,
      "ộ": 859,
      "ớ": 860,
      "ờ": 861,
      "ở": 862,
      "ợ": 863,
      "ụ": 864,
      "ủ": 865,
      "ứ": 866,
      "ử": 867,
      "ữ": 868,
      "ự": 869,
      "ỳ": 870,
      "ἀ": 871,
      "ἄ": 872,
      "ἰ": 873,
      "ὁ": 874,
      "ὺ": 875,
      "​": 876,
      "‌": 877,
      "‍": 878,
      "‎": 879,
      "‏": 880,
      "‐": 881,
      "‑": 882,
      "‒": 883,
      "–": 884,
      "—": 885,
      "―": 886,
      "‖": 887,
      "‘": 888,
      "’": 889,
      "‚": 890,
      "‛": 891,
      "“": 892,
      "”": 893,
      "„": 894,
      "‟": 895,
      "†": 896,
      "‡": 897,
      "•": 898,
      "‥": 899,
      "…": 900,
      "‧": 901,
      "‬": 902,
      "‭": 903,
      "‰": 904,
      "′": 905,
      "″": 906,
      "‹": 907,
      "›": 908,
      "※": 909,
      "⁄": 910,
      "⁭": 911,
      "⁰": 912,
      "⁴": 913,
      "⁵": 914,
      "⁽": 915,
      "⁾": 916,
      "ⁿ": 917,
      "₂": 918,
      "₤": 919,
      "₩": 920,
      "€": 921,
      "℃": 922,
      "ℓ": 923,
      "№": 924,
      "™": 925,
      "ℤ": 926,
      "⅔": 927,
      "⅛": 928,
      "⅜": 929,
      "⅝": 930,
      "⅞": 931,
      "ⅱ": 932,
      "←": 933,
      "↑": 934,
      "→": 935,
      "↓": 936,
      "↔": 937,
      "↝": 938,
      "⇒": 939,
      "⇗": 940,
      "⇢": 941,
      "∀": 942,
      "∆": 943,
      "∈": 944,
      "∏": 945,
      "∑": 946,
      "−": 947,
      "∗": 948,
      "∙": 949,
      "√": 950,
      "∞": 951,
      "∴": 952,
      "∶": 953,
      "≈": 954,
      "≠": 955,
      "≤": 956,
      "≥": 957,
      "≪": 958,
      "≫": 959,
      "⊕": 960,
      "⋅": 961,
      "⌃": 962,
      "⌘": 963,
      "①": 964,
      "②": 965,
      "③": 966,
      "─": 967,
      "│": 968,
      "╔": 969,
      "╚": 970,
      "╦": 971,
      "╩": 972,
      "░": 973,
      "▒": 974,
      "▓": 975,
      "■": 976,
      "□": 977,
      "▧": 978,
      "▪": 979,
      "▲": 980,
      "▷": 981,
      "▸": 982,
      "►": 983,
      "▼": 984,
      "◆": 985,
      "◇": 986,
      "◊": 987,
      "○": 988,
      "◎": 989,
      "●": 990,
      "◙": 991,
      "◦": 992,
      "☀": 993,
      "★": 994,
      "☆": 995,
      "☎": 996,
      "☑": 997,
      "☼": 998,
      "♀": 999,
      "♕": 1000,
      "♣": 1001,
      "♥": 1002,
      "♦": 1003,
      "♪": 1004,
      "♫": 1005,
      "✓": 1006,
      "✔": 1007,
      "✿": 1008,
      "❋": 1009,
      "➟": 1010,
      "➢": 1011,
      "➲": 1012,
      "⡣": 1013,
      "⣬": 1014,
      "、": 1015,
      "。": 1016,
      "〈": 1017,
      "〉": 1018,
      "《": 1019,
      "》": 1020,
      "「": 1021,
      "」": 1022,
      "『": 1023,
      "』": 1024,
      "【": 1025,
      "】": 1026,
      "〜": 1027,
      "あ": 1028,
      "い": 1029,
      "う": 1030,
      "え": 1031,
      "お": 1032,
      "か": 1033,
      "が": 1034,
      "き": 1035,
      "ぎ": 1036,
      "く": 1037,
      "ぐ": 1038,
      "け": 1039,
      "げ": 1040,
      "こ": 1041,
      "ご": 1042,
      "さ": 1043,
      "ざ": 1044,
      "し": 1045,
      "じ": 1046,
      "す": 1047,
      "ず": 1048,
      "せ": 1049,
      "ぜ": 1050,
      "そ": 1051,
      "ぞ": 1052,
      "た": 1053,
      "だ": 1054,
      "ち": 1055,
      "っ": 1056,
      "つ": 1057,
      "て": 1058,
      "で": 1059,
      "と": 1060,
      "ど": 1061,
      "な": 1062,
      "に": 1063,
      "ぬ": 1064,
      "ね": 1065,
      "の": 1066,
      "は": 1067,
      "ば": 1068,
      "ひ": 1069,
      "び": 1070,
      "ふ": 1071,
      "ぶ": 1072,
      "へ": 1073,
      "べ": 1074,
      "ほ": 1075,
      "ぼ": 1076,
      "ぽ": 1077,
      "ま": 1078,
      "み": 1079,
      "む": 1080,
      "め": 1081,
      "も": 1082,
      "ゃ": 1083,
      "や": 1084,
      "ゆ": 1085,
      "ょ": 1086,
      "よ": 1087,
      "ら": 1088,
      "り": 1089,
      "る": 1090,
      "れ": 1091,
      "ろ": 1092,
      "わ": 1093,
      "を": 1094,
      "ん": 1095,
      "ァ": 1096,
      "ア": 1097,
      "ィ": 1098,
      "イ": 1099,
      "ウ": 1100,
      "エ": 1101,
      "ォ": 1102,
      "オ": 1103,
      "カ": 1104,
      "ガ": 1105,
      "キ": 1106,
      "ギ": 1107,
      "ク": 1108,
      "グ": 1109,
      "ケ": 1110,
      "ゲ": 1111,
      "コ": 1112,
      "ゴ": 1113,
      "サ": 1114,
      "ザ": 1115,
      "シ": 1116,
      "ジ": 1117,
      "ス": 1118,
      "ズ": 1119,
      "セ": 1120,
      "ゼ": 1121,
      "ソ": 1122,
      "ゾ": 1123,
      "タ": 1124,
      "ダ": 1125,
      "チ": 1126,
      "ッ": 1127,
      "ツ": 1128,
      "テ": 1129,
      "デ": 1130,
      "ト": 1131,
      "ド": 1132,
      "ナ": 1133,
      "ニ": 1134,
      "ヌ": 1135,
      "ネ": 1136,
      "ノ": 1137,
      "ハ": 1138,
      "バ": 1139,
      "パ": 1140,
      "ヒ": 1141,
      "ビ": 1142,
      "ピ": 1143,
      "フ": 1144,
      "ブ": 1145,
      "プ": 1146,
      "ヘ": 1147,
      "ベ": 1148,
      "ペ": 1149,
      "ホ": 1150,
      "ボ": 1151,
      "ポ": 1152,
      "マ": 1153,
      "ミ": 1154,
      "ム": 1155,
      "メ": 1156,
      "モ": 1157,
      "ャ": 1158,
      "ヤ": 1159,
      "ュ": 1160,
      "ユ": 1161,
      "ヨ": 1162,
      "ラ": 1163,
      "リ": 1164,
      "ル": 1165,
      "レ": 1166,
      "ロ": 1167,
      "ワ": 1168,
      "ン": 1169,
      "ヴ": 1170,
      "・": 1171,
      "ー": 1172,
      "ㄣ": 1173,
      "ㄤ": 1174,
      "ㄧ": 1175,
      "㣬": 1176,
      "㵼": 1177,
      "一": 1178,
      "七": 1179,
      "万": 1180,
      "丈": 1181,
      "三": 1182,
      "上": 1183,
      "下": 1184,
      "不": 1185,
      "业": 1186,
      "东": 1187,
      "丨": 1188,
      "个": 1189,
      "中": 1190,
      "丸": 1191,
      "丹": 1192,
      "主": 1193,
      "丽": 1194,
      "举": 1195,
      "久": 1196,
      "之": 1197,
      "乌": 1198,
      "乏": 1199,
      "乐": 1200,
      "乗": 1201,
      "九": 1202,
      "习": 1203,
      "书": 1204,
      "了": 1205,
      "予": 1206,
      "事": 1207,
      "二": 1208,
      "云": 1209,
      "五": 1210,
      "井": 1211,
      "亚": 1212,
      "交": 1213,
      "产": 1214,
      "享": 1215,
      "京": 1216,
      "人": 1217,
      "仁": 1218,
      "今": 1219,
      "付": 1220,
      "仙": 1221,
      "代": 1222,
      "们": 1223,
      "件": 1224,
      "份": 1225,
      "伊": 1226,
      "休": 1227,
      "优": 1228,
      "会": 1229,
      "伝": 1230,
      "伴": 1231,
      "伸": 1232,
      "位": 1233,
      "住": 1234,
      "佐": 1235,
      "佑": 1236,
      "体": 1237,
      "余": 1238,
      "作": 1239,
      "佰": 1240,
      "佱": 1241,
      "佳": 1242,
      "依": 1243,
      "価": 1244,
      "便": 1245,
      "俊": 1246,
      "保": 1247,
      "信": 1248,
      "修": 1249,
      "倍": 1250,
      "倒": 1251,
      "値": 1252,
      "偵": 1253,
      "傅": 1254,
      "儀": 1255,
      "儒": 1256,
      "元": 1257,
      "光": 1258,
      "克": 1259,
      "児": 1260,
      "入": 1261,
      "全": 1262,
      "八": 1263,
      "公": 1264,
      "六": 1265,
      "兰": 1266,
      "共": 1267,
      "关": 1268,
      "兵": 1269,
      "其": 1270,
      "内": 1271,
      "円": 1272,
      "册": 1273,
      "冠": 1274,
      "冤": 1275,
      "冲": 1276,
      "凄": 1277,
      "几": 1278,
      "出": 1279,
      "分": 1280,
      "切": 1281,
      "列": 1282,
      "刘": 1283,
      "初": 1284,
      "別": 1285,
      "利": 1286,
      "别": 1287,
      "到": 1288,
      "前": 1289,
      "剥": 1290,
      "力": 1291,
      "功": 1292,
      "加": 1293,
      "势": 1294,
      "動": 1295,
      "勘": 1296,
      "務": 1297,
      "勢": 1298,
      "包": 1299,
      "化": 1300,
      "北": 1301,
      "区": 1302,
      "医": 1303,
      "匿": 1304,
      "十": 1305,
      "千": 1306,
      "升": 1307,
      "华": 1308,
      "卓": 1309,
      "南": 1310,
      "単": 1311,
      "博": 1312,
      "卡": 1313,
      "厂": 1314,
      "原": 1315,
      "去": 1316,
      "参": 1317,
      "友": 1318,
      "収": 1319,
      "取": 1320,
      "受": 1321,
      "叟": 1322,
      "口": 1323,
      "句": 1324,
      "只": 1325,
      "叫": 1326,
      "可": 1327,
      "台": 1328,
      "号": 1329,
      "合": 1330,
      "吊": 1331,
      "名": 1332,
      "向": 1333,
      "吗": 1334,
      "吧": 1335,
      "吴": 1336,
      "吹": 1337,
      "呂": 1338,
      "呆": 1339,
      "告": 1340,
      "周": 1341,
      "味": 1342,
      "呼": 1343,
      "和": 1344,
      "咬": 1345,
      "品": 1346,
      "哈": 1347,
      "唸": 1348,
      "商": 1349,
      "啦": 1350,
      "嗎": 1351,
      "嘉": 1352,
      "嘛": 1353,
      "噌": 1354,
      "器": 1355,
      "四": 1356,
      "回": 1357,
      "団": 1358,
      "囧": 1359,
      "园": 1360,
      "囲": 1361,
      "国": 1362,
      "图": 1363,
      "圆": 1364,
      "圍": 1365,
      "園": 1366,
      "土": 1367,
      "在": 1368,
      "地": 1369,
      "场": 1370,
      "址": 1371,
      "坂": 1372,
      "坐": 1373,
      "坑": 1374,
      "垂": 1375,
      "城": 1376,
      "埵": 1377,
      "堂": 1378,
      "場": 1379,
      "塾": 1380,
      "壊": 1381,
      "士": 1382,
      "壹": 1383,
      "备": 1384,
      "変": 1385,
      "外": 1386,
      "多": 1387,
      "夠": 1388,
      "大": 1389,
      "天": 1390,
      "太": 1391,
      "头": 1392,
      "夷": 1393,
      "奈": 1394,
      "奉": 1395,
      "套": 1396,
      "奥": 1397,
      "女": 1398,
      "奸": 1399,
      "好": 1400,
      "妖": 1401,
      "妻": 1402,
      "姫": 1403,
      "娜": 1404,
      "娱": 1405,
      "媛": 1406,
      "嫁": 1407,
      "嬉": 1408,
      "子": 1409,
      "字": 1410,
      "存": 1411,
      "孟": 1412,
      "学": 1413,
      "學": 1414,
      "宁": 1415,
      "它": 1416,
      "宇": 1417,
      "安": 1418,
      "宋": 1419,
      "官": 1420,
      "定": 1421,
      "宜": 1422,
      "宝": 1423,
      "実": 1424,
      "客": 1425,
      "室": 1426,
      "宫": 1427,
      "宮": 1428,
      "家": 1429,
      "容": 1430,
      "宾": 1431,
      "宿": 1432,
      "寄": 1433,
      "富": 1434,
      "實": 1435,
      "寸": 1436,
      "寺": 1437,
      "対": 1438,
      "寿": 1439,
      "将": 1440,
      "尊": 1441,
      "小": 1442,
      "尔": 1443,
      "尙": 1444,
      "就": 1445,
      "尾": 1446,
      "局": 1447,
      "屄": 1448,
      "屈": 1449,
      "届": 1450,
      "屋": 1451,
      "屑": 1452,
      "山": 1453,
      "岐": 1454,
      "岛": 1455,
      "岡": 1456,
      "岩": 1457,
      "岭": 1458,
      "峪": 1459,
      "島": 1460,
      "崎": 1461,
      "川": 1462,
      "州": 1463,
      "巡": 1464,
      "工": 1465,
      "市": 1466,
      "师": 1467,
      "師": 1468,
      "席": 1469,
      "幌": 1470,
      "干": 1471,
      "平": 1472,
      "年": 1473,
      "幹": 1474,
      "广": 1475,
      "庁": 1476,
      "広": 1477,
      "庄": 1478,
      "庆": 1479,
      "店": 1480,
      "府": 1481,
      "座": 1482,
      "庫": 1483,
      "庭": 1484,
      "康": 1485,
      "庸": 1486,
      "建": 1487,
      "开": 1488,
      "弄": 1489,
      "式": 1490,
      "引": 1491,
      "张": 1492,
      "强": 1493,
      "弾": 1494,
      "当": 1495,
      "形": 1496,
      "役": 1497,
      "征": 1498,
      "後": 1499,
      "得": 1500,
      "御": 1501,
      "復": 1502,
      "徳": 1503,
      "德": 1504,
      "心": 1505,
      "必": 1506,
      "忆": 1507,
      "志": 1508,
      "忙": 1509,
      "応": 1510,
      "念": 1511,
      "忻": 1512,
      "态": 1513,
      "思": 1514,
      "怡": 1515,
      "急": 1516,
      "性": 1517,
      "总": 1518,
      "恢": 1519,
      "息": 1520,
      "悠": 1521,
      "悩": 1522,
      "情": 1523,
      "惯": 1524,
      "想": 1525,
      "愛": 1526,
      "感": 1527,
      "態": 1528,
      "慶": 1529,
      "憶": 1530,
      "成": 1531,
      "我": 1532,
      "戯": 1533,
      "戴": 1534,
      "戸": 1535,
      "所": 1536,
      "扈": 1537,
      "手": 1538,
      "才": 1539,
      "打": 1540,
      "扬": 1541,
      "找": 1542,
      "技": 1543,
      "折": 1544,
      "抜": 1545,
      "抵": 1546,
      "担": 1547,
      "拓": 1548,
      "拼": 1549,
      "持": 1550,
      "指": 1551,
      "挡": 1552,
      "挿": 1553,
      "损": 1554,
      "捷": 1555,
      "授": 1556,
      "排": 1557,
      "探": 1558,
      "推": 1559,
      "掻": 1560,
      "揃": 1561,
      "提": 1562,
      "換": 1563,
      "握": 1564,
      "援": 1565,
      "損": 1566,
      "搗": 1567,
      "搞": 1568,
      "摇": 1569,
      "撮": 1570,
      "操": 1571,
      "支": 1572,
      "放": 1573,
      "政": 1574,
      "故": 1575,
      "敏": 1576,
      "教": 1577,
      "数": 1578,
      "整": 1579,
      "敷": 1580,
      "文": 1581,
      "斎": 1582,
      "斗": 1583,
      "斤": 1584,
      "新": 1585,
      "於": 1586,
      "施": 1587,
      "旅": 1588,
      "旗": 1589,
      "无": 1590,
      "日": 1591,
      "明": 1592,
      "星": 1593,
      "春": 1594,
      "是": 1595,
      "時": 1596,
      "晏": 1597,
      "普": 1598,
      "暂": 1599,
      "更": 1600,
      "書": 1601,
      "最": 1602,
      "月": 1603,
      "有": 1604,
      "朋": 1605,
      "服": 1606,
      "木": 1607,
      "本": 1608,
      "札": 1609,
      "术": 1610,
      "朱": 1611,
      "机": 1612,
      "权": 1613,
      "李": 1614,
      "村": 1615,
      "条": 1616,
      "来": 1617,
      "杨": 1618,
      "東": 1619,
      "松": 1620,
      "板": 1621,
      "林": 1622,
      "枚": 1623,
      "枝": 1624,
      "架": 1625,
      "查": 1626,
      "柳": 1627,
      "柴": 1628,
      "栃": 1629,
      "标": 1630,
      "树": 1631,
      "株": 1632,
      "核": 1633,
      "根": 1634,
      "格": 1635,
      "案": 1636,
      "桓": 1637,
      "桜": 1638,
      "桢": 1639,
      "桥": 1640,
      "梨": 1641,
      "械": 1642,
      "梶": 1643,
      "棋": 1644,
      "森": 1645,
      "楠": 1646,
      "業": 1647,
      "楽": 1648,
      "様": 1649,
      "横": 1650,
      "橋": 1651,
      "檔": 1652,
      "次": 1653,
      "欢": 1654,
      "款": 1655,
      "歌": 1656,
      "止": 1657,
      "正": 1658,
      "步": 1659,
      "武": 1660,
      "歩": 1661,
      "死": 1662,
      "段": 1663,
      "殿": 1664,
      "比": 1665,
      "毛": 1666,
      "氏": 1667,
      "民": 1668,
      "气": 1669,
      "水": 1670,
      "永": 1671,
      "汁": 1672,
      "江": 1673,
      "池": 1674,
      "汤": 1675,
      "沒": 1676,
      "沖": 1677,
      "沢": 1678,
      "河": 1679,
      "油": 1680,
      "治": 1681,
      "況": 1682,
      "泉": 1683,
      "法": 1684,
      "波": 1685,
      "泥": 1686,
      "注": 1687,
      "泽": 1688,
      "洋": 1689,
      "洒": 1690,
      "洗": 1691,
      "洛": 1692,
      "津": 1693,
      "洪": 1694,
      "洱": 1695,
      "洲": 1696,
      "流": 1697,
      "浄": 1698,
      "浅": 1699,
      "浙": 1700,
      "浜": 1701,
      "浦": 1702,
      "海": 1703,
      "涂": 1704,
      "消": 1705,
      "涌": 1706,
      "涨": 1707,
      "深": 1708,
      "淹": 1709,
      "添": 1710,
      "清": 1711,
      "済": 1712,
      "渋": 1713,
      "温": 1714,
      "游": 1715,
      "湖": 1716,
      "満": 1717,
      "溜": 1718,
      "溢": 1719,
      "滑": 1720,
      "滩": 1721,
      "漢": 1722,
      "漫": 1723,
      "灣": 1724,
      "火": 1725,
      "点": 1726,
      "為": 1727,
      "焚": 1728,
      "無": 1729,
      "焼": 1730,
      "照": 1731,
      "煮": 1732,
      "熨": 1733,
      "熱": 1734,
      "爪": 1735,
      "爱": 1736,
      "父": 1737,
      "片": 1738,
      "版": 1739,
      "牌": 1740,
      "牙": 1741,
      "物": 1742,
      "牵": 1743,
      "特": 1744,
      "状": 1745,
      "独": 1746,
      "猫": 1747,
      "献": 1748,
      "率": 1749,
      "玉": 1750,
      "王": 1751,
      "玩": 1752,
      "现": 1753,
      "玲": 1754,
      "珠": 1755,
      "球": 1756,
      "理": 1757,
      "琉": 1758,
      "琢": 1759,
      "琮": 1760,
      "琴": 1761,
      "璐": 1762,
      "甘": 1763,
      "甜": 1764,
      "生": 1765,
      "産": 1766,
      "用": 1767,
      "田": 1768,
      "由": 1769,
      "甲": 1770,
      "申": 1771,
      "电": 1772,
      "甸": 1773,
      "画": 1774,
      "番": 1775,
      "異": 1776,
      "畳": 1777,
      "畿": 1778,
      "痛": 1779,
      "痴": 1780,
      "白": 1781,
      "百": 1782,
      "的": 1783,
      "皇": 1784,
      "皮": 1785,
      "益": 1786,
      "目": 1787,
      "直": 1788,
      "相": 1789,
      "看": 1790,
      "県": 1791,
      "真": 1792,
      "眼": 1793,
      "着": 1794,
      "瞎": 1795,
      "知": 1796,
      "石": 1797,
      "硢": 1798,
      "礼": 1799,
      "社": 1800,
      "祖": 1801,
      "祝": 1802,
      "神": 1803,
      "祭": 1804,
      "禄": 1805,
      "福": 1806,
      "秉": 1807,
      "秋": 1808,
      "种": 1809,
      "科": 1810,
      "稲": 1811,
      "空": 1812,
      "立": 1813,
      "站": 1814,
      "端": 1815,
      "竹": 1816,
      "笑": 1817,
      "第": 1818,
      "签": 1819,
      "简": 1820,
      "算": 1821,
      "管": 1822,
      "箱": 1823,
      "篆": 1824,
      "簡": 1825,
      "米": 1826,
      "类": 1827,
      "粉": 1828,
      "系": 1829,
      "紀": 1830,
      "純": 1831,
      "素": 1832,
      "紧": 1833,
      "細": 1834,
      "終": 1835,
      "経": 1836,
      "給": 1837,
      "網": 1838,
      "線": 1839,
      "編": 1840,
      "縄": 1841,
      "縮": 1842,
      "约": 1843,
      "级": 1844,
      "纪": 1845,
      "纱": 1846,
      "纸": 1847,
      "组": 1848,
      "络": 1849,
      "绞": 1850,
      "绰": 1851,
      "编": 1852,
      "网": 1853,
      "罪": 1854,
      "置": 1855,
      "美": 1856,
      "群": 1857,
      "義": 1858,
      "翁": 1859,
      "習": 1860,
      "翴": 1861,
      "耀": 1862,
      "老": 1863,
      "考": 1864,
      "者": 1865,
      "聊": 1866,
      "肃": 1867,
      "肖": 1868,
      "背": 1869,
      "能": 1870,
      "脱": 1871,
      "腰": 1872,
      "腹": 1873,
      "臂": 1874,
      "自": 1875,
      "致": 1876,
      "舞": 1877,
      "航": 1878,
      "舫": 1879,
      "船": 1880,
      "良": 1881,
      "色": 1882,
      "艳": 1883,
      "节": 1884,
      "花": 1885,
      "苏": 1886,
      "若": 1887,
      "英": 1888,
      "茂": 1889,
      "范": 1890,
      "茅": 1891,
      "茨": 1892,
      "茶": 1893,
      "草": 1894,
      "荐": 1895,
      "荣": 1896,
      "获": 1897,
      "莹": 1898,
      "莽": 1899,
      "菩": 1900,
      "萧": 1901,
      "落": 1902,
      "葉": 1903,
      "蒋": 1904,
      "蒸": 1905,
      "蔓": 1906,
      "蔚": 1907,
      "蔵": 1908,
      "薩": 1909,
      "薬": 1910,
      "藤": 1911,
      "蘇": 1912,
      "虎": 1913,
      "虹": 1914,
      "蝦": 1915,
      "螳": 1916,
      "行": 1917,
      "衣": 1918,
      "表": 1919,
      "衫": 1920,
      "袍": 1921,
      "装": 1922,
      "裕": 1923,
      "製": 1924,
      "西": 1925,
      "覇": 1926,
      "親": 1927,
      "见": 1928,
      "览": 1929,
      "角": 1930,
      "解": 1931,
      "言": 1932,
      "計": 1933,
      "記": 1934,
      "設": 1935,
      "誕": 1936,
      "語": 1937,
      "誠": 1938,
      "護": 1939,
      "计": 1940,
      "记": 1941,
      "许": 1942,
      "设": 1943,
      "访": 1944,
      "证": 1945,
      "试": 1946,
      "诘": 1947,
      "话": 1948,
      "语": 1949,
      "谐": 1950,
      "谷": 1951,
      "豆": 1952,
      "象": 1953,
      "豱": 1954,
      "豸": 1955,
      "負": 1956,
      "財": 1957,
      "貸": 1958,
      "費": 1959,
      "賃": 1960,
      "賢": 1961,
      "贞": 1962,
      "贡": 1963,
      "货": 1964,
      "贱": 1965,
      "贳": 1966,
      "赌": 1967,
      "赛": 1968,
      "赠": 1969,
      "赤": 1970,
      "赵": 1971,
      "赶": 1972,
      "起": 1973,
      "超": 1974,
      "越": 1975,
      "足": 1976,
      "跋": 1977,
      "跨": 1978,
      "路": 1979,
      "車": 1980,
      "軍": 1981,
      "輿": 1982,
      "车": 1983,
      "载": 1984,
      "较": 1985,
      "辑": 1986,
      "辞": 1987,
      "辦": 1988,
      "込": 1989,
      "迅": 1990,
      "过": 1991,
      "迎": 1992,
      "近": 1993,
      "这": 1994,
      "连": 1995,
      "送": 1996,
      "适": 1997,
      "逃": 1998,
      "透": 1999,
      "通": 2000,
      "逸": 2001,
      "遇": 2002,
      "遊": 2003,
      "道": 2004,
      "達": 2005,
      "遠": 2006,
      "遣": 2007,
      "還": 2008,
      "那": 2009,
      "邮": 2010,
      "邱": 2011,
      "郎": 2012,
      "部": 2013,
      "郭": 2014,
      "郷": 2015,
      "都": 2016,
      "鄉": 2017,
      "配": 2018,
      "酒": 2019,
      "醍": 2020,
      "醐": 2021,
      "里": 2022,
      "重": 2023,
      "野": 2024,
      "金": 2025,
      "鍵": 2026,
      "鏡": 2027,
      "钓": 2028,
      "钦": 2029,
      "钧": 2030,
      "钱": 2031,
      "铭": 2032,
      "锋": 2033,
      "锚": 2034,
      "锦": 2035,
      "镜": 2036,
      "長": 2037,
      "門": 2038,
      "開": 2039,
      "間": 2040,
      "関": 2041,
      "閥": 2042,
      "關": 2043,
      "问": 2044,
      "间": 2045,
      "闻": 2046,
      "阅": 2047,
      "阜": 2048,
      "队": 2049,
      "阪": 2050,
      "防": 2051,
      "阳": 2052,
      "阴": 2053,
      "陀": 2054,
      "陆": 2055,
      "陈": 2056,
      "降": 2057,
      "院": 2058,
      "除": 2059,
      "陰": 2060,
      "陳": 2061,
      "陶": 2062,
      "陽": 2063,
      "隆": 2064,
      "際": 2065,
      "雁": 2066,
      "雄": 2067,
      "集": 2068,
      "雑": 2069,
      "雛": 2070,
      "雲": 2071,
      "零": 2072,
      "雷": 2073,
      "青": 2074,
      "静": 2075,
      "面": 2076,
      "音": 2077,
      "韶": 2078,
      "頂": 2079,
      "頃": 2080,
      "顶": 2081,
      "顾": 2082,
      "颖": 2083,
      "题": 2084,
      "風": 2085,
      "风": 2086,
      "飞": 2087,
      "食": 2088,
      "飬": 2089,
      "飼": 2090,
      "飾": 2091,
      "餅": 2092,
      "養": 2093,
      "館": 2094,
      "饭": 2095,
      "饰": 2096,
      "馆": 2097,
      "香": 2098,
      "馬": 2099,
      "駄": 2100,
      "駅": 2101,
      "騜": 2102,
      "魂": 2103,
      "鲁": 2104,
      "鵜": 2105,
      "鸣": 2106,
      "鹺": 2107,
      "麻": 2108,
      "黄": 2109,
      "黛": 2110,
      "齐": 2111,
      "龙": 2112,
      "가": 2113,
      "거": 2114,
      "것": 2115,
      "게": 2116,
      "결": 2117,
      "고": 2118,
      "공": 2119,
      "과": 2120,
      "관": 2121,
      "광": 2122,
      "교": 2123,
      "구": 2124,
      "국": 2125,
      "기": 2126,
      "끼": 2127,
      "나": 2128,
      "남": 2129,
      "년": 2130,
      "노": 2131,
      "는": 2132,
      "니": 2133,
      "다": 2134,
      "대": 2135,
      "던": 2136,
      "도": 2137,
      "둑": 2138,
      "뒤": 2139,
      "드": 2140,
      "든": 2141,
      "떨": 2142,
      "라": 2143,
      "랍": 2144,
      "랑": 2145,
      "런": 2146,
      "렉": 2147,
      "련": 2148,
      "로": 2149,
      "르": 2150,
      "를": 2151,
      "리": 2152,
      "마": 2153,
      "모": 2154,
      "몬": 2155,
      "무": 2156,
      "문": 2157,
      "미": 2158,
      "바": 2159,
      "밝": 2160,
      "배": 2161,
      "밴": 2162,
      "번": 2163,
      "법": 2164,
      "보": 2165,
      "본": 2166,
      "비": 2167,
      "쁜": 2168,
      "사": 2169,
      "상": 2170,
      "서": 2171,
      "선": 2172,
      "세": 2173,
      "소": 2174,
      "스": 2175,
      "시": 2176,
      "아": 2177,
      "안": 2178,
      "알": 2179,
      "어": 2180,
      "없": 2181,
      "에": 2182,
      "여": 2183,
      "역": 2184,
      "영": 2185,
      "올": 2186,
      "우": 2187,
      "위": 2188,
      "을": 2189,
      "음": 2190,
      "의": 2191,
      "이": 2192,
      "임": 2193,
      "입": 2194,
      "자": 2195,
      "장": 2196,
      "전": 2197,
      "제": 2198,
      "져": 2199,
      "지": 2200,
      "진": 2201,
      "짜": 2202,
      "찌": 2203,
      "책": 2204,
      "척": 2205,
      "최": 2206,
      "칫": 2207,
      "코": 2208,
      "콨": 2209,
      "트": 2210,
      "평": 2211,
      "프": 2212,
      "하": 2213,
      "학": 2214,
      "한": 2215,
      "합": 2216,
      "해": 2217,
      "화": 2218,
      "힌": 2219,
      "": 2220,
      "": 2221,
      "": 2222,
      "": 2223,
      "": 2224,
      "": 2225,
      "": 2226,
      "": 2227,
      "": 2228,
      "": 2229,
      "": 2230,
      "": 2231,
      "": 2232,
      "": 2233,
      "": 2234,
      "": 2235,
      "": 2236,
      "": 2237,
      "": 2238,
      "": 2239,
      "": 2240,
      "": 2241,
      "ﬁ": 2242,
      "ﬂ": 2243,
      "ﬄ": 2244,
      "﴾": 2245,
      "﴿": 2246,
      "﷓": 2247,
      "︰": 2248,
      "﹏": 2249,
      "﹝": 2250,
      "﹞": 2251,
      "﻿": 2252,
      "！": 2253,
      "％": 2254,
      "（": 2255,
      "）": 2256,
      "＊": 2257,
      "，": 2258,
      "－": 2259,
      "．": 2260,
      "：": 2261,
      "；": 2262,
      "＝": 2263,
      "？": 2264,
      "＾": 2265,
      "ａ": 2266,
      "ｎ": 2267,
      "ｐ": 2268,
      "ｓ": 2269,
      "､": 2270,
      "ｰ": 2271,
      "￡": 2272,
      "�": 2273,
      "𐌰": 2274,
      "𐌴": 2275,
      "𐌸": 2276,
      "𐌼": 2277,
      "𐌽": 2278,
      "𐍃": 2279,
      "𐍉": 2280,
      "𣿿": 2281,
      "񣬰": 2282,
      "񼰺": 2283,
      "󻯣": 2284,
      "##p": 2285,
      "##o": 2286,
      "##s": 2287,
      "##t": 2288,
      "##i": 2289,
      "##l": 2290,
      "##a": 2291,
      "##n": 2292,
      "##r": 2293,
      "##k": 2294,
      "##u": 2295,
      "##h": 2296,
      "##d": 2297,
      "##v": 2298,
      "##6": 2299,
      "##2": 2300,
      "##3": 2301,
      "##4": 2302,
      "##x": 2303,
      "##w": 2304,
      "##g": 2305,
      "##c": 2306,
      "##m": 2307,
      "##e": 2308,
      "##é": 2309,
      "##í": 2310,
      "##z": 2311,
      "##f": 2312,
      "##b": 2313,
      "##è": 2314,
      "##1": 2315,
      "##y": 2316,
      "##!": 2317,
      "##9": 2318,
      "##8": 2319,
      "##0": 2320,
      "##5": 2321,
      "##q": 2322,
      "##о": 2323,
      "##б": 2324,
      "##т": 2325,
      "##7": 2326,
      "##î": 2327,
      "##ð": 2328,
      "##ì": 2329,
      "##â": 2330,
      "##à": 2331,
      "##ò": 2332,
      "##ü": 2333,
      "##ñ": 2334,
      "##ÿ": 2335,
      "##ö": 2336,
      "##г": 2337,
      "##ر": 2338,
      "##ف": 2339,
      "##ي": 2340,
      "##ن": 2341,
      "##j": 2342,
      "##ó": 2343,
      "##á": 2344,
      "##å": 2345,
      "##ã": 2346,
      "##ï": 2347,
      "##ä": 2348,
      "##.": 2349,
      "##$": 2350,
      "##)": 2351,
      "##{": 2352,
      "##а": 2353,
      "##л": 2354,
      "##у": 2355,
      "##ж": 2356,
      "##д": 2357,
      "##в": 2358,
      "##м": 2359,
      "##š": 2360,
      "##ô": 2361,
      "##р": 2362,
      "##е": 2363,
      "##室": 2364,
      "##_": 2365,
      "##ł": 2366,
      "##ą": 2367,
      "##и": 2368,
      "##手": 2369,
      "##许": 2370,
      "##ş": 2371,
      "##ı": 2372,
      "##ذ": 2373,
      "##ا": 2374,
      "##ب": 2375,
      "##^": 2376,
      "##\"": 2377,
      "##ý": 2378,
      "##-": 2379,
      "##ø": 2380,
      "##с": 2381,
      "##ч": 2382,
      "##к": 2383,
      "##х": 2384,
      "##я": 2385,
      "##н": 2386,
      "##ю": 2387,
      "##س": 2388,
      "##ل": 2389,
      "##م": 2390,
      "##æ": 2391,
      "##º": 2392,
      "##:": 2393,
      "##[": 2394,
      "##\\": 2395,
      "##й": 2396,
      "##?": 2397,
      "##ú": 2398,
      "##]": 2399,
      "##ق": 2400,
      "##د": 2401,
      "##,": 2402,
      "##ê": 2403,
      "##з": 2404,
      "##ц": 2405,
      "##ề": 2406,
      "##ś": 2407,
      "##ć": 2408,
      "##ç": 2409,
      "##ь": 2410,
      "##ы": 2411,
      "##ф": 2412,
      "##č": 2413,
      "##μ": 2414,
      "##™": 2415,
      "##ß": 2416,
      "##ň": 2417,
      "##ë": 2418,
      "##œ": 2419,
      "##п": 2420,
      "##ª": 2421,
      "##ž": 2422,
      "##幌": 2423,
      "##市": 2424,
      "##õ": 2425,
      "##û": 2426,
      "##–": 2427,
      "##ج": 2428,
      "##و": 2429,
      "##щ": 2430,
      "##ţ": 2431,
      "##ă": 2432,
      "###": 2433,
      "##ْ": 2434,
      "##ه": 2435,
      "##ط": 2436,
      "##ع": 2437,
      "##ة": 2438,
      "##ɗ": 2439,
      "##ù": 2440,
      "##ض": 2441,
      "##ε": 2442,
      "##ν": 2443,
      "##ο": 2444,
      "##ύ": 2445,
      "##γ": 2446,
      "##豆": 2447,
      "##ė": 2448,
      "##": 2449,
      "##ί": 2450,
      "##ѓ": 2451,
      "##ћ": 2452,
      "##į": 2453,
      "##ت": 2454,
      "##(": 2455,
      "##ח": 2456,
      "##ו": 2457,
      "##ל": 2458,
      "##»": 2459,
      "##“": 2460,
      "##”": 2461,
      "##ǔ": 2462,
      "##ū": 2463,
      "##ў": 2464,
      "##ъ": 2465,
      "##خ": 2466,
      "##ľ": 2467,
      "##%": 2468,
      "##ё": 2469,
      "##ğ": 2470,
      "##庫": 2471,
      "##県": 2472,
      "##ā": 2473,
      "##ī": 2474,
      "##/": 2475,
      "##ω": 2476,
      "##ő": 2477,
      "##+": 2478,
      "##ấ": 2479,
      "##غ": 2480,
      "##ш": 2481,
      "##'": 2482,
      "##|": 2483,
      "##�": 2484,
      "##˾": 2485,
      "##": 2486,
      "##ř": 2487,
      "##δ": 2488,
      "##χ": 2489,
      "##ι": 2490,
      "##&": 2491,
      "##þ": 2492,
      "##ِ": 2493,
      "##َ": 2494,
      "##ك": 2495,
      "##援": 2496,
      "##交": 2497,
      "##‭": 2498,
      "##}": 2499,
      "##ę": 2500,
      "##ż": 2501,
      "##ť": 2502,
      "##σ": 2503,
      "##τ": 2504,
      "##υ": 2505,
      "##أ": 2506,
      "##η": 2507,
      "##ρ": 2508,
      "##α": 2509,
      "##ά": 2510,
      "##ं": 2511,
      "##स": 2512,
      "##्": 2513,
      "##क": 2514,
      "##ृ": 2515,
      "##त": 2516,
      "##म": 2517,
      "##ン": 2518,
      "##ラ": 2519,
      "##イ": 2520,
      "##で": 2521,
      "##カ": 2522,
      "##ジ": 2523,
      "##ノ": 2524,
      "##の": 2525,
      "##日": 2526,
      "##本": 2527,
      "##語": 2528,
      "##ต": 2529,
      "##่": 2530,
      "##ห": 2531,
      "##ล": 2532,
      "##า": 2533,
      "##ย": 2534,
      "##ό": 2535,
      "##ů": 2536,
      "##刘": 2537,
      "##静": 2538,
      "##怡": 2539,
      "##ƒ": 2540,
      "##½": 2541,
      "##ĝ": 2542,
      "##ĺ": 2543,
      "##生": 2544,
      "##ς": 2545,
      "##ی": 2546,
      "##³": 2547,
      "##פ": 2548,
      "##ה": 2549,
      "##े": 2550,
      "##प": 2551,
      "##ा": 2552,
      "##ल": 2553,
      "##ђ": 2554,
      "##ќ": 2555,
      "##љ": 2556,
      "##‘": 2557,
      "##*": 2558,
      "##浦": 2559,
      "##由": 2560,
      "##記": 2561,
      "##—": 2562,
      "##ᴹ": 2563,
      "##ᴰ": 2564,
      "##越": 2565,
      "##λ": 2566,
      "##κ": 2567,
      "##洱": 2568,
      "##є": 2569,
      "##年": 2570,
      "##џ": 2571,
      "##đ": 2572,
      "##њ": 2573,
      "##松": 2574,
      "##²": 2575,
      "##~": 2576,
      "##…": 2577,
      "##ﬁ": 2578,
      "##π": 2579,
      "##ώ": 2580,
      "##=": 2581,
      "##ร": 2582,
      "##ิ": 2583,
      "##เ": 2584,
      "##ว": 2585,
      "##ณ": 2586,
      "##ช": 2587,
      "##ง": 2588,
      "##ก": 2589,
      "##ะ": 2590,
      "##ด": 2591,
      "##ู": 2592,
      "##ส": 2593,
      "##ั": 2594,
      "##น": 2595,
      "##®": 2596,
      "##ہ": 2597,
      "##¦": 2598,
      "##ń": 2599,
      "##̇": 2600,
      "##着": 2601,
      "##;": 2602,
      "##`": 2603,
      "##ě": 2604,
      "##ื": 2605,
      "##อ": 2606,
      "##พ": 2607,
      "##ผ": 2608,
      "##ม": 2609,
      "##ใ": 2610,
      "##ค": 2611,
      "##บ": 2612,
      "##א": 2613,
      "##ג": 2614,
      "##ד": 2615,
      "##𐍃": 2616,
      "##𐌰": 2617,
      "##𐌽": 2618,
      "##𐌼": 2619,
      "##𐌴": 2620,
      "##𐍉": 2621,
      "##𐌸": 2622,
      "##戴": 2623,
      "##إ": 2624,
      "##ص": 2625,
      "##ך": 2626,
      "##ش": 2627,
      "##ѕ": 2628,
      "##і": 2629,
      "##µ": 2630,
      "##·": 2631,
      "##ح": 2632,
      "##三": 2633,
      "##名": 2634,
      "##恢": 2635,
      "##復": 2636,
      "##成": 2637,
      "##器": 2638,
      "##ک": 2639,
      "##ố": 2640,
      "##＊": 2641,
      "##担": 2642,
      "##": 2643,
      "##ａ": 2644,
      "##ｐ": 2645,
      "##ｎ": 2646,
      "##‡": 2647,
      "##‌": 2648,
      "##ґ": 2649,
      "##ј": 2650,
      "##息": 2651,
      "##ŕ": 2652,
      "##>": 2653,
      "##": 2654,
      "##’": 2655,
      "##ȇ": 2656,
      "##ث": 2657,
      "##ى": 2658,
      "##茅": 2659,
      "##ئ": 2660,
      "##ɛ": 2661,
      "##ʀ": 2662,
      "##屑": 2663,
      "##ユ": 2664,
      "##ー": 2665,
      "##ト": 2666,
      "##ピ": 2667,
      "##ア": 2668,
      "##ű": 2669,
      "##۰": 2670,
      "##‹": 2671,
      "##书": 2672,
      "##坑": 2673,
      "##儒": 2674,
      "##": 2675,
      "##қ": 2676,
      "##ң": 2677,
      "##ї": 2678,
      "##店": 2679,
      "##设": 2680,
      "##计": 2681,
      "##装": 2682,
      "##修": 2683,
      "##一": 2684,
      "##流": 2685,
      "##«": 2686,
      "##э": 2687,
      "##入": 2688,
      "##歌": 2689,
      "##ị": 2690,
      "##ẻ": 2691,
      "##ộ": 2692,
      "##년": 2693,
      "##θ": 2694,
      "##ो": 2695,
      "##ग": 2696,
      "##©": 2697,
      "##β": 2698,
      "##ỳ": 2699,
      "##ѯ": 2700,
      "##ų": 2701,
      "##מ": 2702,
      "##י": 2703,
      "##ת": 2704,
      "##ˆ": 2705,
      "##ō": 2706,
      "##ṣ": 2707,
      "##ź": 2708,
      "##ｓ": 2709,
      "##ǐ": 2710,
      "##。": 2711,
      "##­": 2712,
      "##ル": 2713,
      "##˝": 2714,
      "##ụ": 2715,
      "##ņ": 2716,
      "##ظ": 2717,
      "##ُ": 2718,
      "##付": 2719,
      "##​": 2720,
      "##¡": 2721,
      "##ـ": 2722,
      "##ً": 2723,
      "##र": 2724,
      "##ी": 2725,
      "##撮": 2726,
      "##„": 2727,
      "##έ": 2728,
      "##ế": 2729,
      "##ļ": 2730,
      "##冤": 2731,
      "##死": 2732,
      "##画": 2733,
      "##持": 2734,
      "##合": 2735,
      "##覇": 2736,
      "##€": 2737,
      "##ή": 2738,
      "##ド": 2739,
      "##던": 2740,
      "##東": 2741,
      "##": 2742,
      "##ʼ": 2743,
      "##ء": 2744,
      "##": 2745,
      "##ᓗ": 2746,
      "##ᐊ": 2747,
      "##ᓃ": 2748,
      "##ᑦ": 2749,
      "##ᑐ": 2750,
      "##ᓄ": 2751,
      "##ĩ": 2752,
      "##ز": 2753,
      "##ᒥ": 2754,
      "##ᓴ": 2755,
      "##ᓇ": 2756,
      "##ᒧ": 2757,
      "##音": 2758,
      "##レ": 2759,
      "##オ": 2760,
      "##リ": 2761,
      "##ナ": 2762,
      "##い": 2763,
      "##た": 2764,
      "##ま": 2765,
      "##出": 2766,
      "##˜": 2767,
      "##ξ": 2768,
      "##@": 2769,
      "##•": 2770,
      "##ם": 2771,
      "##ả": 2772,
      "##ē": 2773,
      "##ζ": 2774,
      "##ư": 2775,
      "##ờ": 2776,
      "##φ": 2777,
      "##£": 2778,
      "##无": 2779,
      "##ں": 2780,
      "##舫": 2781,
      "##氏": 2782,
      "##軍": 2783,
      "##計": 2784,
      "##台": 2785,
      "##网": 2786,
      "##友": 2787,
      "##ᓐ": 2788,
      "##ᖑ": 2789,
      "##ᖅ": 2790,
      "##ᓕ": 2791,
      "##ᕆ": 2792,
      "##ᓂ": 2793,
      "##ᕐ": 2794,
      "##ᓪ": 2795,
      "##石": 2796,
      "##知": 2797,
      "##ט": 2798,
      "##ע": 2799,
      "##ר": 2800,
      "##ạ": 2801,
      "##回": 2802,
      "##不": 2803,
      "##去": 2804,
      "##ķ": 2805,
      "##ペ": 2806,
      "##座": 2807,
      "##§": 2808,
      "##」": 2809,
      "##̃": 2810,
      "##ữ": 2811,
      "##部": 2812,
      "##木": 2813,
      "##ˈ": 2814,
      "##ɲ": 2815,
      "##ɔ": 2816,
      "##һ": 2817,
      "##⡣": 2818,
      "##ễ": 2819,
      "##图": 2820,
      "##片": 2821,
      "##站": 2822,
      "##ケ": 2823,
      "##ッ": 2824,
      "##戯": 2825,
      "##王": 2826,
      "##°": 2827,
      "##加": 2828,
      "##壹": 2829,
      "##ṇ": 2830,
      "##薩": 2831,
      "##套": 2832,
      "##ס": 2833,
      "##下": 2834,
      "##נ": 2835,
      "##‎": 2836,
      "##ウ": 2837,
      "##ス": 2838,
      "##を": 2839,
      "##用": 2840,
      "##て": 2841,
      "##ț": 2842,
      "##】": 2843,
      "##": 2844,
      "##ク": 2845,
      "##サ": 2846,
      "##მ": 2847,
      "##庆": 2848,
      "##ҵ": 2849,
      "##گ": 2850,
      "##±": 2851,
      "##צ": 2852,
      "##ן": 2853,
      "##ӡ": 2854,
      "##ˢ": 2855,
      "##โ": 2856,
      "##ป": 2857,
      "##แ": 2858,
      "##ല": 2859,
      "##യ": 2860,
      "##ാ": 2861,
      "##ള": 2862,
      "##ം": 2863,
      "##谷": 2864,
      "##¸": 2865,
      "##扬": 2866,
      "##ψ": 2867,
      "##解": 2868,
      "##更": 2869,
      "##多": 2870,
      "##有": 2871,
      "##关": 2872,
      "##点": 2873,
      "##的": 2874,
      "##内": 2875,
      "##容": 2876,
      "##세": 2877,
      "##‑": 2878,
      "##顶": 2879,
      "##操": 2880,
      "##吗": 2881,
      "##车": 2882,
      "##海": 2883,
      "##老": 2884,
      "##都": 2885,
      "##宮": 2886,
      "##้": 2887,
      "##ท": 2888,
      "##ศ": 2889,
      "##็": 2890,
      "##ถ": 2891,
      "##จ": 2892,
      "##ๆ": 2893,
      "##‬": 2894,
      "##ʃ": 2895,
      "##ệ": 2896,
      "##´": 2897,
      "##網": 2898,
      "##址": 2899,
      "##夠": 2900,
      "##看": 2901,
      "##ʱ": 2902,
      "##ี": 2903,
      "##ข": 2904,
      "##ғ": 2905,
      "##山": 2906,
      "##利": 2907,
      "##尊": 2908,
      "##ე": 2909,
      "##დ": 2910,
      "##გ": 2911,
      "##ი": 2912,
      "##پ": 2913,
      "##¨": 2914,
      "##り": 2915,
      "##ุ": 2916,
      "##׼": 2917,
      "##举": 2918,
      "##牌": 2919,
      "##": 2920,
      "##ԥ": 2921,
      "##耀": 2922,
      "##仁": 2923,
      "##施": 2924,
      "##放": 2925,
      "##气": 2926,
      "##球": 2927,
      "##終": 2928,
      "##了": 2929,
      "##す": 2930,
      "##る": 2931,
      "##ẽ": 2932,
      "##媛": 2933,
      "##ː": 2934,
      "##ɚ": 2935,
      "##翁": 2936,
      "##金": 2937,
      "##珠": 2938,
      "##ġ": 2939,
      "##伊": 2940,
      "##稲": 2941,
      "##取": 2942,
      "##れ": 2943,
      "##物": 2944,
      "##縄": 2945,
      "##ำ": 2946,
      "##ึ": 2947,
      "##ﬂ": 2948,
      "##も": 2949,
      "##吧": 2950,
      "##ᑭ": 2951,
      "##ᒃ": 2952,
      "##ᑎ": 2953,
      "##ͺ": 2954,
      "##尔": 2955,
      "##苏": 2956,
      "##黛": 2957,
      "##阪": 2958,
      "##囧": 2959,
      "##南": 2960,
      "##洋": 2961,
      "##国": 2962,
      "##荣": 2963,
      "##峪": 2964,
      "##逸": 2965,
      "##ʒ": 2966,
      "##洲": 2967,
      "##之": 2968,
      "##家": 2969,
      "##医": 2970,
      "##院": 2971,
      "##ŏ": 2972,
      "##門": 2973,
      "##飼": 2974,
      "##†": 2975,
      "##五": 2976,
      "##月": 2977,
      "##镜": 2978,
      "##空": 2979,
      "##ᖕ": 2980,
      "##ّ": 2981,
      "##津": 2982,
      "##辞": 2983,
      "##¥": 2984,
      "##蔓": 2985,
      "##藤": 2986,
      "##跋": 2987,
      "##扈": 2988,
      "##ϊ": 2989,
      "##ש": 2990,
      "##ল": 2991,
      "##ে": 2992,
      "##ক": 2993,
      "##্": 2994,
      "##স": 2995,
      "##া": 2996,
      "##ঁ": 2997,
      "##দ": 2998,
      "##র": 2999,
      "##ọ": 3000,
      "##ơ": 3001,
      "##♪": 3002,
      "##正": 3003,
      "##体": 3004,
      "##中": 3005,
      "##文": 3006,
      "##キ": 3007,
      "##ミ": 3008,
      "##ダ": 3009,
      "##́": 3010,
      "##勢": 3011,
      "##脱": 3012,
      "##罪": 3013,
      "##奸": 3014,
      "##구": 3015,
      "##黄": 3016,
      "##德": 3017,
      "##隆": 3018,
      "##良": 3019,
      "##ầ": 3020,
      "##江": 3021,
      "##路": 3022,
      "##涌": 3023,
      "##ؤ": 3024,
      "##־": 3025,
      "##¹": 3026,
      "##⁾": 3027,
      "##์": 3028,
      "##来": 3029,
      "##마": 3030,
      "##甜": 3031,
      "##茶": 3032,
      "##ǎ": 3033,
      "##끼": 3034,
      "##를": 3035,
      "##叫": 3036,
      "##甸": 3037,
      "##敏": 3038,
      "##¼": 3039,
      "##ᐸ": 3040,
      "##ᑕ": 3041,
      "##ᖏ": 3042,
      "##ฝ": 3043,
      "##̤": 3044,
      "##島": 3045,
      "##锚": 3046,
      "##う": 3047,
      "##は": 3048,
      "##（": 3049,
      "##＾": 3050,
      "##չ": 3051,
      "##ʾ": 3052,
      "##ậ": 3053,
      "##ュ": 3054,
      "##マ": 3055,
      "##": 3056,
      "##揃": 3057,
      "##역": 3058,
      "##자": 3059,
      "##의": 3060,
      "##吴": 3061,
      "##宝": 3062,
      "##玉": 3063,
      "##案": 3064,
      "##太": 3065,
      "##大": 3066,
      "##沒": 3067,
      "##辦": 3068,
      "##法": 3069,
      "##寄": 3070,
      "##給": 3071,
      "##朋": 3072,
      "##嗎": 3073,
      "##ử": 3074,
      "##‰": 3075,
      "##¤": 3076,
      "##ĉ": 3077,
      "##ო": 3078,
      "##ლ": 3079,
      "##ს": 3080,
      "##ự": 3081,
      "##ܵ": 3082,
      "##ȷ": 3083,
      "##כ": 3084,
      "##ᵉ": 3085,
      "##届": 3086,
      "##二": 3087,
      "##八": 3088,
      "##事": 3089,
      "##件": 3090,
      "##¯": 3091,
      "##ے": 3092,
      "##라": 3093,
      "##남": 3094,
      "##도": 3095,
      "##学": 3096,
      "##製": 3097,
      "##品": 3098,
      "##管": 3099,
      "##ứ": 3100,
      "##ָ": 3101,
      "##北": 3102,
      "##『": 3103,
      "##랍": 3104,
      "##니": 3105,
      "##다": 3106,
      "##森": 3107,
      "##ĵ": 3108,
      "##囲": 3109,
      "##っ": 3110,
      "##♥": 3111,
      "##郭": 3112,
      "##冠": 3113,
      "##英": 3114,
      "##得": 3115,
      "##고": 3116,
      "##ɪ": 3117,
      "##原": 3118,
      "##雄": 3119,
      "##馬": 3120,
      "##ᓯ": 3121,
      "##ᒪ": 3122,
      "##ᔭ": 3123,
      "##‚": 3124,
      "##۳": 3125,
      "##는": 3126,
      "##）": 3127,
      "##񣬰": 3128,
      "##郎": 3129,
      "##˙": 3130,
      "##안": 3131,
      "##会": 3132,
      "##社": 3133,
      "##사": 3134,
      "##醍": 3135,
      "##醐": 3136,
      "##妻": 3137,
      "##ồ": 3138,
      "##寿": 3139,
      "##こ": 3140,
      "##か": 3141,
      "##ら": 3142,
      "##ど": 3143,
      "##な": 3144,
      "##선": 3145,
      "##爪": 3146,
      "##琴": 3147,
      "##〉": 3148,
      "##』": 3149,
      "##朱": 3150,
      "##安": 3151,
      "##무": 3152,
      "##런": 3153,
      "##ở": 3154,
      "##어": 3155,
      "##¶": 3156,
      "##十": 3157,
      "##摇": 3158,
      "##尾": 3159,
      "##见": 3160,
      "##逃": 3161,
      "##几": 3162,
      "##󻯣": 3163,
      "##ू": 3164,
      "##权": 3165,
      "##所": 3166,
      "##߹": 3167,
      "##ģ": 3168,
      "##": 3169,
      "##分": 3170,
      "##○": 3171,
      "##民": 3172,
      "##道": 3173,
      "##ү": 3174,
      "##ә": 3175,
      "##除": 3176,
      "##依": 3177,
      "##چ": 3178,
      "##﹏": 3179,
      "##余": 3180,
      "##晏": 3181,
      "##୦": 3182,
      "##୯": 3183,
      "##߻": 3184,
      "##ไ": 3185,
      "##ב": 3186,
      "##‏": 3187,
      "##ӣ": 3188,
      "##법": 3189,
      "##화": 3190,
      "##鸣": 3191,
      "##지": 3192,
      "##우": 3193,
      "##満": 3194,
      "##開": 3195,
      "##ŭ": 3196,
      "##切": 3197,
      "##腹": 3198,
      "##舞": 3199,
      "##ヤ": 3200,
      "##ズ": 3201,
      "##ɐ": 3202,
      "##ə": 3203,
      "##୨": 3204,
      "##賢": 3205,
      "##粉": 3206,
      "##ϋ": 3207,
      "##ɷ": 3208,
      "##丸": 3209,
      "##列": 3210,
      "##車": 3211,
      "##ᐃ": 3212,
      "##ᕈ": 3213,
      "##ᐅ": 3214,
      "##ᑲ": 3215,
      "##ᑯ": 3216,
      "##ᒻ": 3217,
      "##ᕗ": 3218,
      "##ɳ": 3219,
      "##陶": 3220,
      "##板": 3221,
      "##核": 3222,
      "##へ": 3223,
      "##★": 3224,
      "##ỗ": 3225,
      "##蔵": 3226,
      "##兰": 3227,
      "##钦": 3228,
      "##御": 3229,
      "##﻿": 3230,
      "##天": 3231,
      "##乏": 3232,
      "##术": 3233,
      "##较": 3234,
      "##蔚": 3235,
      "##임": 3236,
      "##可": 3237,
      "##颖": 3238,
      "##性": 3239,
      "##爱": 3240,
      "##ἰ": 3241,
      "##،": 3242,
      "##素": 3243,
      "##贞": 3244,
      "##련": 3245,
      "##": 3246,
      "##ֿ": 3247,
      "##ҙ": 3248,
      "##想": 3249,
      "##赶": 3250,
      "##目": 3251,
      "##ŵ": 3252,
      "##": 3253,
      "##˲": 3254,
      "##者": 3255,
      "##ᔾ": 3256,
      "##ᔪ": 3257,
      "##기": 3258,
      "##›": 3259,
      "##百": 3260,
      "##角": 3261,
      "##ვ": 3262,
      "##რ": 3263,
      "##ק": 3264,
      "##博": 3265,
      "##光": 3266,
      "##ᖃ": 3267,
      "##ᖢ": 3268,
      "##實": 3269,
      "##¾": 3270,
      "##搗": 3271,
      "##き": 3272,
      "##ጽ": 3273,
      "##衣": 3274,
      "##干": 3275,
      "##洗": 3276,
      "##机": 3277,
      "##和": 3278,
      "##备": 3279,
      "##田": 3280,
      "##娱": 3281,
      "##乐": 3282,
      "##场": 3283,
      "##在": 3284,
      "##上": 3285,
      "##语": 3286,
      "##ᕙ": 3287,
      "##直": 3288,
      "##志": 3289,
      "##宁": 3290,
      "##根": 3291,
      "##": 3292,
      "##就": 3293,
      "##城": 3294,
      "##ხ": 3295,
      "##川": 3296,
      "##ブ": 3297,
      "##シ": 3298,
      "##メ": 3299,
      "##ắ": 3300,
      "##徳": 3301,
      "##ƽ": 3302,
      "##̨": 3303,
      "##য": 3304,
      "##ু": 3305,
      "##ম": 3306,
      "##郷": 3307,
      "##明": 3308,
      "##ん": 3309,
      "##し": 3310,
      "##ͳ": 3311,
      "##ɣ": 3312,
      "##ქ": 3313,
      "##ა": 3314,
      "##ნ": 3315,
      "##势": 3316,
      "##ȹ": 3317,
      "##≥": 3318,
      "##它": 3319,
      "##械": 3320,
      "##렉": 3321,
      "##상": 3322,
      "##드": 3323,
      "##르": 3324,
      "##": 3325,
      "##滩": 3326,
      "##ネ": 3327,
      "##庸": 3328,
      "##ď": 3329,
      "##ژ": 3330,
      "##ỏ": 3331,
      "##ḍ": 3332,
      "##客": 3333,
      "##ฟ": 3334,
      "##锋": 3335,
      "##線": 3336,
      "##や": 3337,
      "##心": 3338,
      "##遣": 3339,
      "##嬉": 3340,
      "##ổ": 3341,
      "##升": 3342,
      "##落": 3343,
      "##水": 3344,
      "##池": 3345,
      "##沢": 3346,
      "##ण": 3347,
      "##ि": 3348,
      "##द": 3349,
      "##ह": 3350,
      "##タ": 3351,
      "##둑": 3352,
      "##人": 3353,
      "##服": 3354,
      "##務": 3355,
      "##岡": 3356,
      "##೯": 3357,
      "##೦": 3358,
      "##೪": 3359,
      "##経": 3360,
      "##ỉ": 3361,
      "##ገ": 3362,
      "##ስ": 3363,
      "##ት": 3364,
      "##⅝": 3365,
      "##琮": 3366,
      "##啦": 3367,
      "##¿": 3368,
      "##ტ": 3369,
      "##შ": 3370,
      "##溜": 3371,
      "##०": 3372,
      "##५": 3373,
      "##京": 3374,
      "##迎": 3375,
      "##蒋": 3376,
      "##寺": 3377,
      "##师": 3378,
      "##ͨ": 3379,
      "##宿": 3380,
      "##区": 3381,
      "##鄉": 3382,
      "##草": 3383,
      "##我": 3384,
      "##们": 3385,
      "##住": 3386,
      "##过": 3387,
      "##最": 3388,
      "##好": 3389,
      "##星": 3390,
      "##级": 3391,
      "##酒": 3392,
      "##佰": 3393,
      "##۲": 3394,
      "##ԁ": 3395,
      "##泉": 3396,
      "##只": 3397,
      "##皇": 3398,
      "##若": 3399,
      "##教": 3400,
      "##授": 3401,
      "##と": 3402,
      "##永": 3403,
      "##遠": 3404,
      "##姫": 3405,
      "##과": 3406,
      "##≤": 3407,
      "##圆": 3408,
      "##ᔮ": 3409,
      "##ȏ": 3410,
      "##式": 3411,
      "##熨": 3412,
      "##斗": 3413,
      "##込": 3414,
      "##夷": 3415,
      "##将": 3416,
      "##东": 3417,
      "##科": 3418,
      "##技": 3419,
      "##№": 3420,
      "##๊": 3421,
      "##소": 3422,
      "##로": 3423,
      "##崎": 3424,
      "##음": 3425,
      "##을": 3426,
      "##士": 3427,
      "##・": 3428,
      "##न": 3429,
      "##ҡ": 3430,
      "##ფ": 3431,
      "##力": 3432,
      "##支": 3433,
      "##魂": 3434,
      "##笑": 3435,
      "##浄": 3436,
      "##口": 3437,
      "##円": 3438,
      "##お": 3439,
      "##よ": 3440,
      "##そ": 3441,
      "##値": 3442,
      "##段": 3443,
      "##哈": 3444,
      "##達": 3445,
      "##通": 3446,
      "##州": 3447,
      "##ҽ": 3448,
      "##申": 3449,
      "##业": 3450,
      "##武": 3451,
      "##雑": 3452,
      "##煮": 3453,
      "##卓": 3454,
      "##钧": 3455,
      "##장": 3456,
      "##짜": 3457,
      "##送": 3458,
      "##국": 3459,
      "##ぶ": 3460,
      "##つ": 3461,
      "##ᒋ": 3462,
      "##ᐳ": 3463,
      "##エ": 3464,
      "##プ": 3465,
      "##≈": 3466,
      "##清": 3467,
      "##别": 3468,
      "##总": 3469,
      "##览": 3470,
      "##广": 3471,
      "##̍": 3472,
      "##阅": 3473,
      "##庭": 3474,
      "##師": 3475,
      "##ヒ": 3476,
      "##閥": 3477,
      "##提": 3478,
      "##埵": 3479,
      "##۶": 3480,
      "##フ": 3481,
      "##率": 3482,
      "##损": 3483,
      "##결": 3484,
      "##책": 3485,
      "##実": 3486,
      "##習": 3487,
      "##☼": 3488,
      "##ṳ": 3489,
      "##̆": 3490,
      "##む": 3491,
      "##み": 3492,
      "##个": 3493,
      "##起": 3494,
      "##打": 3495,
      "##戸": 3496,
      "##洪": 3497,
      "##建": 3498,
      "##益": 3499,
      "##ฉ": 3500,
      "##異": 3501,
      "##端": 3502,
      "##児": 3503,
      "##集": 3504,
      "##団": 3505,
      "##ẳ": 3506,
      "##߷": 3507,
      "##→": 3508,
      "##ಶ": 3509,
      "##್": 3510,
      "##ವ": 3511,
      "##ರ": 3512,
      "##ಯ": 3513,
      "##ಾ": 3514,
      "##瞎": 3515,
      "##搞": 3516,
      "##ᕌ": 3517,
      "##ᖓ": 3518,
      "##，": 3519,
      "##局": 3520,
      "##テ": 3521,
      "##呼": 3522,
      "##純": 3523,
      "##": 3524,
      "##抜": 3525,
      "##宜": 3526,
      "##足": 3527,
      "##ず": 3528,
      "##さ": 3529,
      "##ひ": 3530,
      "##際": 3531,
      "##共": 3532,
      "##場": 3533,
      "##享": 3534,
      "##旅": 3535,
      "##遊": 3536,
      "##照": 3537,
      "##佳": 3538,
      "##코": 3539,
      "##노": 3540,
      "##미": 3541,
      "##스": 3542,
      "##트": 3543,
      "##唸": 3544,
      "##阜": 3545,
      "##ợ": 3546,
      "##く": 3547,
      "##保": 3548,
      "##ᓘ": 3549,
      "##寸": 3550,
      "##步": 3551,
      "##纸": 3552,
      "##ᓚ": 3553,
      "##ᑖ": 3554,
      "##焼": 3555,
      "##﷓": 3556,
      "##功": 3557,
      "##能": 3558,
      "##伝": 3559,
      "##パ": 3560,
      "##あ": 3561,
      "##": 3562,
      "##井": 3563,
      "##伸": 3564,
      "##広": 3565,
      "##比": 3566,
      "##೫": 3567,
      "##面": 3568,
      "##に": 3569,
      "##白": 3570,
      "##バ": 3571,
      "##花": 3572,
      "##が": 3573,
      "##飾": 3574,
      "##親": 3575,
      "##包": 3576,
      "##邮": 3577,
      "##対": 3578,
      "##象": 3579,
      "##ォ": 3580,
      "##園": 3581,
      "##業": 3582,
      "##阳": 3583,
      "##¢": 3584,
      "##克": 3585,
      "##里": 3586,
      "##񼰺": 3587,
      "##ȩ": 3588,
      "##ὺ": 3589,
      "##西": 3590,
      "##祖": 3591,
      "##竹": 3592,
      "##秉": 3593,
      "##官": 3594,
      "##橋": 3595,
      "##ַ": 3596,
      "##ֲ": 3597,
      "##闻": 3598,
      "##ǰ": 3599,
      "##÷": 3600,
      "##˽": 3601,
      "##ᕋ": 3602,
      "##ᑏ": 3603,
      "##۹": 3604,
      "##": 3605,
      "##地": 3606,
      "##行": 3607,
      "##遇": 3608,
      "##到": 3609,
      "##约": 3610,
      "##现": 3611,
      "##代": 3612,
      "##风": 3613,
      "##格": 3614,
      "##赛": 3615,
      "##浜": 3616,
      "##آ": 3617,
      "##ょ": 3618,
      "##袍": 3619,
      "##屋": 3620,
      "##呂": 3621,
      "##ẩ": 3622,
      "##形": 3623,
      "##": 3624,
      "##ℓ": 3625,
      "##艳": 3626,
      "##系": 3627,
      "##ธ": 3628,
      "##ೈ": 3629,
      "##ተ": 3630,
      "##ቀ": 3631,
      "##የ": 3632,
      "##ረ": 3633,
      "##ው": 3634,
      "##ै": 3635,
      "##葉": 3636,
      "##噌": 3637,
      "##ⁿ": 3638,
      "##╚": 3639,
      "##ǿ": 3640,
      "##♫": 3641,
      "##¬": 3642,
      "##가": 3643,
      "##ȗ": 3644,
      "##ィ": 3645,
      "##ャ": 3646,
      "##香": 3647,
      "##九": 3648,
      "##ΐ": 3649,
      "##間": 3650,
      "##랑": 3651,
      "##康": 3652,
      "##費": 3653,
      "##価": 3654,
      "##힌": 3655,
      "##钱": 3656,
      "##": 3657,
      "##枚": 3658,
      "##溢": 3659,
      "##ĕ": 3660,
      "##ʰ": 3661,
      "##火": 3662,
      "##換": 3663,
      "##え": 3664,
      "##ɑ": 3665,
      "##楽": 3666,
      "##猫": 3667,
      "##ガ": 3668,
      "##痴": 3669,
      "##态": 3670,
      "##油": 3671,
      "##ז": 3672,
      "##餅": 3673,
      "##衫": 3674,
      "##⣬": 3675,
      "##﴿": 3676,
      "##デ": 3677,
      "##ァ": 3678,
      "##忙": 3679,
      "##ษ": 3680,
      "##ǒ": 3681,
      "##飞": 3682,
      "##ロ": 3683,
      "##グ": 3684,
      "##थ": 3685,
      "##村": 3686,
      "##麻": 3687,
      "##": 3688,
      "##공": 3689,
      "##합": 3690,
      "##赤": 3691,
      "##岭": 3692,
      "##ญ": 3693,
      "##せ": 3694,
      "##ϵ": 3695,
      "##ぐ": 3696,
      "##頃": 3697,
      "##引": 3698,
      "##立": 3699,
      "##◊": 3700,
      "##探": 3701,
      "##偵": 3702,
      "##ポ": 3703,
      "##̶": 3704,
      "##척": 3705,
      "##하": 3706,
      "##幹": 3707,
      "##書": 3708,
      "##坐": 3709,
      "##治": 3710,
      "##ɾ": 3711,
      "##政": 3712,
      "##奉": 3713,
      "##還": 3714,
      "##ḥ": 3715,
      "##莹": 3716,
      "##負": 3717,
      "##제": 3718,
      "##에": 3719,
      "##理": 3720,
      "##位": 3721,
      "##置": 3722,
      "##优": 3723,
      "##汤": 3724,
      "##相": 3725,
      "##ٔ": 3726,
      "##辑": 3727,
      "##话": 3728,
      "##卡": 3729,
      "##万": 3730,
      "##受": 3731,
      "##け": 3732,
      "##関": 3733,
      "##考": 3734,
      "##淹": 3735,
      "##零": 3736,
      "##광": 3737,
      "##시": 3738,
      "##學": 3739,
      "##抵": 3740,
      "##於": 3741,
      "##孟": 3742,
      "##妖": 3743,
      "##誕": 3744,
      "##当": 3745,
      "##ば": 3746,
      "##駄": 3747,
      "##ゃ": 3748,
      "##თ": 3749,
      "##㣬": 3750,
      "##୫": 3751,
      "##岛": 3752,
      "##信": 3753,
      "##佑": 3754,
      "##庄": 3755,
      "##千": 3756,
      "##嘛": 3757,
      "##暂": 3758,
      "##找": 3759,
      "##ҫ": 3760,
      "##ӫ": 3761,
      "##种": 3762,
      "##子": 3763,
      "##학": 3764,
      "##교": 3765,
      "##ṃ": 3766,
      "##̥": 3767,
      "##丨": 3768,
      "##证": 3769,
      "##条": 3770,
      "##款": 3771,
      "##義": 3772,
      "##ぽ": 3773,
      "##告": 3774,
      "##编": 3775,
      "##態": 3776,
      "##泽": 3777,
      "##臂": 3778,
      "##挡": 3779,
      "##ʺ": 3780,
      "##უ": 3781,
      "##პ": 3782,
      "##吹": 3783,
      "##ể": 3784,
      "##礼": 3785,
      "##ฏ": 3786,
      "##忻": 3787,
      "##ც": 3788,
      "##ｰ": 3789,
      "##損": 3790,
      "##虎": 3791,
      "##止": 3792,
      "##梨": 3793,
      "##自": 3794,
      "##便": 3795,
      "##是": 3796,
      "##这": 3797,
      "##次": 3798,
      "##捷": 3799,
      "##쁜": 3800,
      "##土": 3801,
      "##鍵": 3802,
      "##字": 3803,
      "##美": 3804,
      "##味": 3805,
      "##ף": 3806,
      "##̐": 3807,
      "##動": 3808,
      "##産": 3809,
      "##萧": 3810,
      "##洒": 3811,
      "##题": 3812,
      "##记": 3813,
      "##೭": 3814,
      "##ム": 3815,
      "##๑": 3816,
      "##屈": 3817,
      "##ș": 3818,
      "##∑": 3819,
      "##ũ": 3820,
      "##わ": 3821,
      "##ħ": 3822,
      "##商": 3823,
      "##柳": 3824,
      "##茂": 3825,
      "##楠": 3826,
      "##ٷ": 3827,
      "##野": 3828,
      "##駅": 3829,
      "##│": 3830,
      "##色": 3831,
      "##畿": 3832,
      "##庁": 3833,
      "##": 3834,
      "##丹": 3835,
      "##灣": 3836,
      "##済": 3837,
      "##ṭ": 3838,
      "##紀": 3839,
      "##∆": 3840,
      "##여": 3841,
      "##몬": 3842,
      "##ͷ": 3843,
      "##コ": 3844,
      "##向": 3845,
      "##群": 3846,
      "##한": 3847,
      "##工": 3848,
      "##厂": 3849,
      "##ซ": 3850,
      "##咬": 3851,
      "##紧": 3852,
      "##牙": 3853,
      "##特": 3854,
      "##急": 3855,
      "##ḷ": 3856,
      "##ब": 3857,
      "##य": 3858,
      "##米": 3859,
      "##献": 3860,
      "##ﬄ": 3861,
      "##降": 3862,
      "##注": 3863,
      "##春": 3864,
      "##泥": 3865,
      "##呆": 3866,
      "##‐": 3867,
      "##握": 3868,
      "##言": 3869,
      "##欢": 3870,
      "##痛": 3871,
      "##推": 3872,
      "##荐": 3873,
      "##配": 3874,
      "##ክ": 3875,
      "##ቶ": 3876,
      "##በ": 3877,
      "##ር": 3878,
      "##ᵐ": 3879,
      "##∀": 3880,
      "##۱": 3881,
      "##ご": 3882,
      "##ざ": 3883,
      "##璐": 3884,
      "##×": 3885,
      "##ᑉ": 3886,
      "##参": 3887,
      "##ớ": 3888,
      "##防": 3889,
      "##园": 3890,
      "##簡": 3891,
      "##単": 3892,
      "##変": 3893,
      "##薬": 3894,
      "##ᖁ": 3895,
      "##ủ": 3896,
      "##作": 3897,
      "##콨": 3898,
      "##だ": 3899,
      "##思": 3900,
      "##李": 3901,
      "##져": 3902,
      "##货": 3903,
      "##府": 3904,
      "##肃": 3905,
      "##ʢ": 3906,
      "##神": 3907,
      "##輿": 3908,
      "##鲁": 3909,
      "##齐": 3910,
      "##号": 3911,
      "##桥": 3912,
      "##册": 3913,
      "##标": 3914,
      "##迅": 3915,
      "##雷": 3916,
      "##载": 3917,
      "##׵": 3918,
      "##►": 3919,
      "##雲": 3920,
      "##׬": 3921,
      "##敷": 3922,
      "##モ": 3923,
      "##޺": 3924,
      "##ʡ": 3925,
      "##ƶ": 3926,
      "##龙": 3927,
      "##头": 3928,
      "##리": 3929,
      "##表": 3930,
      "##서": 3931,
      "##主": 3932,
      "##席": 3933,
      "##纪": 3934,
      "##念": 3935,
      "##堂": 3936,
      "##莽": 3937,
      "##必": 3938,
      "##饭": 3939,
      "##诘": 3940,
      "##习": 3941,
      "##←": 3942,
      "##ұ": 3943,
      "##份": 3944,
      "##陈": 3945,
      "##铭": 3946,
      "##情": 3947,
      "##俊": 3948,
      "##父": 3949,
      "##强": 3950,
      "##谐": 3951,
      "##ʌ": 3952,
      "##۵": 3953,
      "##ህ": 3954,
      "##": 3955,
      "##背": 3956,
      "##이": 3957,
      "##✿": 3958,
      "##ŀ": 3959,
      "##賃": 3960,
      "##貸": 3961,
      "##४": 3962,
      "##߶": 3963,
      "##設": 3964,
      "##定": 3965,
      "##憶": 3966,
      "##後": 3967,
      "##編": 3968,
      "##ɨ": 3969,
      "##კ": 3970,
      "##−": 3971,
      "##ᕝ": 3972,
      "##ᕕ": 3973,
      "##棋": 3974,
      "##队": 3975,
      "##重": 3976,
      "##玲": 3977,
      "##ጨ": 3978,
      "##ሻ": 3979,
      "##整": 3980,
      "##別": 3981,
      "##든": 3982,
      "##壊": 3983,
      "##问": 3984,
      "##签": 3985,
      "##屄": 3986,
      "##漢": 3987,
      "##儀": 3988,
      "##ղ": 3989,
      "##բ": 3990,
      "##ぎ": 3991,
      "##娜": 3992,
      "##波": 3993,
      "##丽": 3994,
      "##倍": 3995,
      "##況": 3996,
      "##久": 3997,
      "##殿": 3998,
      "##es": 3999,
      "##on": 4000,
      "##nt": 4001,
      "de": 4002,
      "##ur": 4003,
      "##er": 4004,
      "##ti": 4005,
      "##re": 4006,
      "##ent": 4007,
      "##is": 4008,
      "##ou": 4009,
      "##it": 4010,
      "la": 4011,
      "##an": 4012,
      "##le": 4013,
      "##ue": 4014,
      "##tion": 4015,
      "##ar": 4016,
      "et": 4017,
      "##ne": 4018,
      "le": 4019,
      "##en": 4020,
      "##or": 4021,
      "##ment": 4022,
      "les": 4023,
      "##te": 4024,
      "##om": 4025,
      "pr": 4026,
      "des": 4027,
      "en": 4028,
      "##in": 4029,
      "##our": 4030,
      "##si": 4031,
      "au": 4032,
      "##ra": 4033,
      "##st": 4034,
      "##ant": 4035,
      "con": 4036,
      "##ous": 4037,
      "##ation": 4038,
      "un": 4039,
      "qu": 4040,
      "##ai": 4041,
      "##al": 4042,
      "##ve": 4043,
      "par": 4044,
      "##ce": 4045,
      "##me": 4046,
      "##li": 4047,
      "que": 4048,
      "com": 4049,
      "##ans": 4050,
      "ce": 4051,
      "pour": 4052,
      "##ri": 4053,
      "##que": 4054,
      "##és": 4055,
      "##us": 4056,
      "du": 4057,
      "pro": 4058,
      "est": 4059,
      "##as": 4060,
      "une": 4061,
      "##ci": 4062,
      "##tre": 4063,
      "##ch": 4064,
      "##res": 4065,
      "dé": 4066,
      "##il": 4067,
      "##qu": 4068,
      "dans": 4069,
      "##au": 4070,
      "##oi": 4071,
      "##se": 4072,
      "in": 4073,
      "re": 4074,
      "##ons": 4075,
      "##ta": 4076,
      "il": 4077,
      "pl": 4078,
      "##pp": 4079,
      "##eu": 4080,
      "sur": 4081,
      "##os": 4082,
      "##de": 4083,
      "##ont": 4084,
      "ch": 4085,
      "##mp": 4086,
      "qui": 4087,
      "ré": 4088,
      "##té": 4089,
      "##ag": 4090,
      "nous": 4091,
      "##les": 4092,
      "##lle": 4093,
      "##ité": 4094,
      "##di": 4095,
      "##ais": 4096,
      "##op": 4097,
      "##ff": 4098,
      "ex": 4099,
      "se": 4100,
      "##ie": 4101,
      "pas": 4102,
      "##ée": 4103,
      "ac": 4104,
      "##ts": 4105,
      "vous": 4106,
      "##ers": 4107,
      "##ol": 4108,
      "ou": 4109,
      "##urs": 4110,
      "##ces": 4111,
      "comm": 4112,
      "##ro": 4113,
      "##ir": 4114,
      "##aire": 4115,
      "##lement": 4116,
      "di": 4117,
      "##ort": 4118,
      "##ab": 4119,
      "##mb": 4120,
      "##ure": 4121,
      "##sion": 4122,
      "plus": 4123,
      "int": 4124,
      "ave": 4125,
      "su": 4126,
      "tou": 4127,
      "ne": 4128,
      "##ère": 4129,
      "##ait": 4130,
      "av": 4131,
      "##at": 4132,
      "tr": 4133,
      "##ion": 4134,
      "je": 4135,
      "##ul": 4136,
      "##ques": 4137,
      "an": 4138,
      "mo": 4139,
      "##tte": 4140,
      "eur": 4141,
      "avec": 4142,
      "##ati": 4143,
      "##ées": 4144,
      "si": 4145,
      "##du": 4146,
      "pré": 4147,
      "##ction": 4148,
      "##mes": 4149,
      "comp": 4150,
      "##vi": 4151,
      "##ès": 4152,
      "europ": 4153,
      "ent": 4154,
      "app": 4155,
      "##otre": 4156,
      "##tes": 4157,
      "li": 4158,
      "##ite": 4159,
      "sont": 4160,
      "##ouv": 4161,
      "ser": 4162,
      "##ct": 4163,
      "me": 4164,
      "aux": 4165,
      "##ge": 4166,
      "tra": 4167,
      "##fi": 4168,
      "mon": 4169,
      "##ations": 4170,
      "##and": 4171,
      "##age": 4172,
      "##cu": 4173,
      "##pe": 4174,
      "##ens": 4175,
      "##ux": 4176,
      "##ale": 4177,
      "##onn": 4178,
      "##ré": 4179,
      "gr": 4180,
      "ra": 4181,
      "##ni": 4182,
      "éta": 4183,
      "te": 4184,
      "##che": 4185,
      "##end": 4186,
      "##00": 4187,
      "po": 4188,
      "##lo": 4189,
      "##ance": 4190,
      "##aux": 4191,
      "##ouve": 4192,
      "##lis": 4193,
      "cette": 4194,
      "aut": 4195,
      "dis": 4196,
      "peu": 4197,
      "##ins": 4198,
      "so": 4199,
      "##mi": 4200,
      "ca": 4201,
      "##pr": 4202,
      "##ments": 4203,
      "europé": 4204,
      "##orm": 4205,
      "imp": 4206,
      "##oir": 4207,
      "res": 4208,
      "##tions": 4209,
      "ar": 4210,
      "pa": 4211,
      "##lé": 4212,
      "##éri": 4213,
      "être": 4214,
      "parti": 4215,
      "##ren": 4216,
      "##ter": 4217,
      "acc": 4218,
      "fa": 4219,
      "##dent": 4220,
      "mais": 4221,
      "sa": 4222,
      "cons": 4223,
      "inter": 4224,
      "##aires": 4225,
      "européen": 4226,
      "##lles": 4227,
      "ont": 4228,
      "##éra": 4229,
      "##la": 4230,
      "##ien": 4231,
      "##tu": 4232,
      "commis": 4233,
      "prop": 4234,
      "##ille": 4235,
      "##ss": 4236,
      "##je": 4237,
      "co": 4238,
      "##da": 4239,
      "##onne": 4240,
      "entre": 4241,
      "##eur": 4242,
      "sou": 4243,
      "##dre": 4244,
      "##gi": 4245,
      "##vent": 4246,
      "##ois": 4247,
      "ma": 4248,
      "per": 4249,
      "##ui": 4250,
      "ces": 4251,
      "mar": 4252,
      "cha": 4253,
      "##ls": 4254,
      "pu": 4255,
      "vi": 4256,
      "##ise": 4257,
      "##its": 4258,
      "ai": 4259,
      "été": 4260,
      "##teur": 4261,
      "##ten": 4262,
      "conc": 4263,
      "éc": 4264,
      "##ord": 4265,
      "##tra": 4266,
      "##ér": 4267,
      "##ants": 4268,
      "##ys": 4269,
      "comme": 4270,
      "##cti": 4271,
      "son": 4272,
      "ob": 4273,
      "dev": 4274,
      "pers": 4275,
      "uti": 4276,
      "tout": 4277,
      "votre": 4278,
      "##tique": 4279,
      "ad": 4280,
      "am": 4281,
      "al": 4282,
      "exp": 4283,
      "##oc": 4284,
      "on": 4285,
      "rapp": 4286,
      "##tr": 4287,
      "##un": 4288,
      "##ble": 4289,
      "ég": 4290,
      "commission": 4291,
      "##én": 4292,
      "##able": 4293,
      "fait": 4294,
      "or": 4295,
      "th": 4296,
      "##ème": 4297,
      "##ors": 4298,
      "utilis": 4299,
      "##ique": 4300,
      "nom": 4301,
      "fon": 4302,
      "rés": 4303,
      "##ac": 4304,
      "##ours": 4305,
      "déc": 4306,
      "inf": 4307,
      "ag": 4308,
      "eff": 4309,
      "nouve": 4310,
      "##ités": 4311,
      "trav": 4312,
      "mes": 4313,
      "##gra": 4314,
      "##tel": 4315,
      "##ésent": 4316,
      "prési": 4317,
      "##bre": 4318,
      "##alement": 4319,
      "##el": 4320,
      "200": 4321,
      "poli": 4322,
      "notre": 4323,
      "pays": 4324,
      "##bli": 4325,
      "dire": 4326,
      "##mbres": 4327,
      "mê": 4328,
      "do": 4329,
      "##ut": 4330,
      "##ig": 4331,
      "es": 4332,
      "sé": 4333,
      "##iv": 4334,
      "##ence": 4335,
      "car": 4336,
      "fin": 4337,
      "##um": 4338,
      "##ande": 4339,
      "##teurs": 4340,
      "at": 4341,
      "##ail": 4342,
      "elle": 4343,
      "bien": 4344,
      "leur": 4345,
      "##oy": 4346,
      "##min": 4347,
      "##ouver": 4348,
      "produ": 4349,
      "##iss": 4350,
      "##ca": 4351,
      "ter": 4352,
      "tous": 4353,
      "##ssi": 4354,
      "##ner": 4355,
      "##ard": 4356,
      "dro": 4357,
      "servi": 4358,
      "##ver": 4359,
      "##nes": 4360,
      "##ves": 4361,
      "président": 4362,
      "même": 4363,
      "ses": 4364,
      "##ales": 4365,
      "##met": 4366,
      "aussi": 4367,
      "##co": 4368,
      "for": 4369,
      "##fin": 4370,
      "né": 4371,
      "européenne": 4372,
      "##alis": 4373,
      "peut": 4374,
      "ass": 4375,
      "ann": 4376,
      "##ement": 4377,
      "##ist": 4378,
      "disp": 4379,
      "##cation": 4380,
      "autres": 4381,
      "pre": 4382,
      "mé": 4383,
      "cer": 4384,
      "##osi": 4385,
      "sp": 4386,
      "faire": 4387,
      "ren": 4388,
      "##lè": 4389,
      "sit": 4390,
      "##eux": 4391,
      "##ru": 4392,
      "##rent": 4393,
      "deux": 4394,
      "##tin": 4395,
      "##am": 4396,
      "hô": 4397,
      "trans": 4398,
      "dép": 4399,
      "##ot": 4400,
      "également": 4401,
      "pos": 4402,
      "man": 4403,
      "conf": 4404,
      "##aine": 4405,
      "##aut": 4406,
      "sy": 4407,
      "##cip": 4408,
      "nos": 4409,
      "très": 4410,
      "ab": 4411,
      "env": 4412,
      "##ines": 4413,
      "off": 4414,
      "##ures": 4415,
      "##cess": 4416,
      "import": 4417,
      "union": 4418,
      "conse": 4419,
      "soci": 4420,
      "##ez": 4421,
      "conseil": 4422,
      "can": 4423,
      "##ing": 4424,
      "ils": 4425,
      "##ères": 4426,
      "##dé": 4427,
      "cl": 4428,
      "diff": 4429,
      "ni": 4430,
      "##alité": 4431,
      "##..": 4432,
      "fr": 4433,
      "rapport": 4434,
      "##ler": 4435,
      "vis": 4436,
      "##tent": 4437,
      "ques": 4438,
      "dem": 4439,
      "présent": 4440,
      "parlement": 4441,
      "be": 4442,
      "pe": 4443,
      "cli": 4444,
      "cent": 4445,
      "##olu": 4446,
      "donn": 4447,
      "ins": 4448,
      "inform": 4449,
      "##nement": 4450,
      "##der": 4451,
      "ain": 4452,
      "##lopp": 4453,
      "ainsi": 4454,
      "##cep": 4455,
      "rép": 4456,
      "##velopp": 4457,
      "premi": 4458,
      "nombre": 4459,
      "##ph": 4460,
      "min": 4461,
      "##ilité": 4462,
      "développ": 4463,
      "rec": 4464,
      "##oint": 4465,
      "##onom": 4466,
      "lors": 4467,
      "##ante": 4468,
      "hôtel": 4469,
      "##fs": 4470,
      "travail": 4471,
      "##titu": 4472,
      "##cher": 4473,
      "emp": 4474,
      "rég": 4475,
      "états": 4476,
      "no": 4477,
      "membres": 4478,
      "év": 4479,
      "##cé": 4480,
      "##sieur": 4481,
      "monsieur": 4482,
      "##im": 4483,
      "concer": 4484,
      "sans": 4485,
      "situ": 4486,
      "##tri": 4487,
      "##qui": 4488,
      "19": 4489,
      "##des": 4490,
      "non": 4491,
      "toute": 4492,
      "jus": 4493,
      "politique": 4494,
      "cré": 4495,
      "fi": 4496,
      "##tiques": 4497,
      "##ose": 4498,
      "seu": 4499,
      "aff": 4500,
      "publi": 4501,
      "##oup": 4502,
      "permet": 4503,
      "im": 4504,
      "##usi": 4505,
      "##ari": 4506,
      "##jet": 4507,
      "quel": 4508,
      "##ace": 4509,
      "##mps": 4510,
      "##ger": 4511,
      "the": 4512,
      "##ine": 4513,
      "##iter": 4514,
      "ét": 4515,
      "##vre": 4516,
      "avons": 4517,
      "##uis": 4518,
      "bas": 4519,
      "##gan": 4520,
      "##mbre": 4521,
      "pri": 4522,
      "##bles": 4523,
      "##ven": 4524,
      "cas": 4525,
      "##ourn": 4526,
      "##og": 4527,
      "##ages": 4528,
      "##tement": 4529,
      "##gram": 4530,
      "##ises": 4531,
      "certa": 4532,
      "ver": 4533,
      "vo": 4534,
      "sec": 4535,
      "économ": 4536,
      "##ég": 4537,
      "col": 4538,
      "program": 4539,
      "cela": 4540,
      "op": 4541,
      "...": 4542,
      "doit": 4543,
      "mi": 4544,
      "##près": 4545,
      "esp": 4546,
      "##omm": 4547,
      "##erci": 4548,
      "commun": 4549,
      "vou": 4550,
      "organ": 4551,
      "prof": 4552,
      "grand": 4553,
      "as": 4554,
      "point": 4555,
      "##ult": 4556,
      "prob": 4557,
      "inst": 4558,
      "##eurs": 4559,
      "effe": 4560,
      "##jour": 4561,
      "syst": 4562,
      "##rit": 4563,
      "##ues": 4564,
      "##cur": 4565,
      "europe": 4566,
      "der": 4567,
      "##tue": 4568,
      "ph": 4569,
      ").": 4570,
      "##onc": 4571,
      "où": 4572,
      "##nation": 4573,
      "personn": 4574,
      "##osition": 4575,
      "##oire": 4576,
      "leurs": 4577,
      "march": 4578,
      "déb": 4579,
      "dont": 4580,
      "gén": 4581,
      "##aient": 4582,
      "##isse": 4583,
      "##aint": 4584,
      "st": 4585,
      "avant": 4586,
      "##iste": 4587,
      "personne": 4588,
      "possi": 4589,
      "accord": 4590,
      "prin": 4591,
      "inc": 4592,
      "toutes": 4593,
      "##gn": 4594,
      "sal": 4595,
      "##llement": 4596,
      "autre": 4597,
      "internation": 4598,
      "##tiv": 4599,
      "##uer": 4600,
      "pouv": 4601,
      "##ents": 4602,
      "contre": 4603,
      "cana": 4604,
      "##rence": 4605,
      "##semb": 4606,
      "té": 4607,
      "cet": 4608,
      "##ser": 4609,
      "##rais": 4610,
      "##orte": 4611,
      "soit": 4612,
      "##ables": 4613,
      "##endant": 4614,
      "organis": 4615,
      "##ong": 4616,
      "form": 4617,
      "mil": 4618,
      "temps": 4619,
      "##ds": 4620,
      "ci": 4621,
      "nécess": 4622,
      "derni": 4623,
      "après": 4624,
      "##rois": 4625,
      "vos": 4626,
      "dom": 4627,
      "##rai": 4628,
      "##ière": 4629,
      "cor": 4630,
      "##gne": 4631,
      "som": 4632,
      "particu": 4633,
      "appli": 4634,
      "rel": 4635,
      "développement": 4636,
      "droits": 4637,
      "dém": 4638,
      "afin": 4639,
      "##core": 4640,
      "services": 4641,
      "##ogi": 4642,
      "cour": 4643,
      "particuli": 4644,
      "##pi": 4645,
      "##éli": 4646,
      "envir": 4647,
      "##rait": 4648,
      "##use": 4649,
      "##mis": 4650,
      "entrepr": 4651,
      "gar": 4652,
      "encore": 4653,
      "équi": 4654,
      "##tis": 4655,
      "question": 4656,
      "éle": 4657,
      "##par": 4658,
      "##oupe": 4659,
      "peti": 4660,
      "##trib": 4661,
      "tech": 4662,
      "##ét": 4663,
      "spé": 4664,
      "sécur": 4665,
      "##uni": 4666,
      "pren": 4667,
      "site": 4668,
      "personnes": 4669,
      "vie": 4670,
      "##cer": 4671,
      "##mple": 4672,
      "fonction": 4673,
      "déj": 4674,
      "##èg": 4675,
      "##ération": 4676,
      "diffé": 4677,
      "##ense": 4678,
      "##ber": 4679,
      "##enir": 4680,
      "sous": 4681,
      "##ision": 4682,
      "##lar": 4683,
      "spéci": 4684,
      "##bilité": 4685,
      "),": 4686,
      "met": 4687,
      "avoir": 4688,
      "gra": 4689,
      "mal": 4690,
      "##sions": 4691,
      "sera": 4692,
      "##lu": 4693,
      "cap": 4694,
      "##mment": 4695,
      "donc": 4696,
      "indi": 4697,
      "##ain": 4698,
      "mati": 4699,
      "monde": 4700,
      "##ic": 4701,
      "##rer": 4702,
      "bes": 4703,
      "##ances": 4704,
      "gouver": 4705,
      "to": 4706,
      "##lon": 4707,
      "hom": 4708,
      "dep": 4709,
      "obje": 4710,
      "rem": 4711,
      "##oci": 4712,
      "réf": 4713,
      "bu": 4714,
      "##ire": 4715,
      "repr": 4716,
      "hui": 4717,
      "##ions": 4718,
      "##orts": 4719,
      "depuis": 4720,
      "sécurité": 4721,
      "##oni": 4722,
      "nation": 4723,
      "##out": 4724,
      "##ier": 4725,
      "##olution": 4726,
      "##quer": 4727,
      "const": 4728,
      "##oin": 4729,
      "nive": 4730,
      "##ange": 4731,
      "sta": 4732,
      "ju": 4733,
      "télé": 4734,
      "produits": 4735,
      "groupe": 4736,
      "service": 4737,
      "20": 4738,
      "##atique": 4739,
      "##ôle": 4740,
      "peuvent": 4741,
      "règ": 4742,
      "fois": 4743,
      "##ang": 4744,
      "##endre": 4745,
      "##ill": 4746,
      "##all": 4747,
      "##ate": 4748,
      "oc": 4749,
      "##ateurs": 4750,
      "##gie": 4751,
      "##antes": 4752,
      "système": 4753,
      "##voir": 4754,
      "cadre": 4755,
      "##uses": 4756,
      "##jourd": 4757,
      "##été": 4758,
      "aujourd": 4759,
      "généra": 4760,
      "##cle": 4761,
      "##ctive": 4762,
      "dou": 4763,
      "ess": 4764,
      "bi": 4765,
      "##iti": 4766,
      "exe": 4767,
      "jour": 4768,
      "##ctions": 4769,
      "##sement": 4770,
      "grande": 4771,
      "##ifi": 4772,
      "conn": 4773,
      "recher": 4774,
      "part": 4775,
      "propos": 4776,
      "jeu": 4777,
      "princip": 4778,
      "aucu": 4779,
      "fer": 4780,
      "concern": 4781,
      "##rie": 4782,
      "était": 4783,
      "##ative": 4784,
      "##sid": 4785,
      "char": 4786,
      "lan": 4787,
      "##ond": 4788,
      "rais": 4789,
      "beau": 4790,
      "##ole": 4791,
      "transp": 4792,
      "##ies": 4793,
      "droit": 4794,
      "##pons": 4795,
      "pres": 4796,
      "and": 4797,
      "chaque": 4798,
      "centre": 4799,
      "##mer": 4800,
      "##oivent": 4801,
      "finan": 4802,
      "marché": 4803,
      "##em": 4804,
      "##th": 4805,
      "chambres": 4806,
      "aur": 4807,
      "cit": 4808,
      "##ente": 4809,
      "autor": 4810,
      "##onnement": 4811,
      "##one": 4812,
      "maint": 4813,
      "objecti": 4814,
      "##ateur": 4815,
      "programme": 4816,
      "cr": 4817,
      "lég": 4818,
      "ti": 4819,
      "enf": 4820,
      "##nements": 4821,
      "partie": 4822,
      "ori": 4823,
      "moins": 4824,
      "mont": 4825,
      "activ": 4826,
      "##ature": 4827,
      "respons": 4828,
      "##ad": 4829,
      "we": 4830,
      "actue": 4831,
      "devons": 4832,
      "moy": 4833,
      "long": 4834,
      "dur": 4835,
      "elles": 4836,
      "différent": 4837,
      "supp": 4838,
      "souh": 4839,
      "compte": 4840,
      "prix": 4841,
      "##be": 4842,
      "##ris": 4843,
      "comment": 4844,
      "doivent": 4845,
      "##lig": 4846,
      "trois": 4847,
      "représent": 4848,
      "ans": 4849,
      "lui": 4850,
      "##ulture": 4851,
      "région": 4852,
      "vers": 4853,
      "##mé": 4854,
      "rep": 4855,
      "ville": 4856,
      "##jours": 4857,
      "cours": 4858,
      "ho": 4859,
      "niveau": 4860,
      "assur": 4861,
      "faut": 4862,
      "loc": 4863,
      "demand": 4864,
      "matière": 4865,
      "place": 4866,
      "##ouvez": 4867,
      "##ches": 4868,
      "##aiss": 4869,
      "respe": 4870,
      "déjà": 4871,
      "déf": 4872,
      "lu": 4873,
      "##iques": 4874,
      "eng": 4875,
      "qualité": 4876,
      "##dition": 4877,
      "##enne": 4878,
      "souhait": 4879,
      "tant": 4880,
      "plan": 4881,
      "##tribu": 4882,
      "seulement": 4883,
      "##cri": 4884,
      "situation": 4885,
      "milli": 4886,
      "##are": 4887,
      "sant": 4888,
      "voud": 4889,
      "posi": 4890,
      "arti": 4891,
      "voi": 4892,
      "demande": 4893,
      "public": 4894,
      "toujours": 4895,
      "environnement": 4896,
      "##aines": 4897,
      "##cul": 4898,
      "bar": 4899,
      "vue": 4900,
      "##ites": 4901,
      "fourn": 4902,
      "jusqu": 4903,
      "port": 4904,
      "##seig": 4905,
      "meille": 4906,
      "contr": 4907,
      "manière": 4908,
      "ici": 4909,
      "quelques": 4910,
      "financi": 4911,
      "certains": 4912,
      "année": 4913,
      "lieu": 4914,
      "contra": 4915,
      "garant": 4916,
      "canada": 4917,
      "is": 4918,
      "che": 4919,
      "contin": 4920,
      "##eure": 4921,
      "nouveau": 4922,
      "##êt": 4923,
      "sommes": 4924,
      "pouvez": 4925,
      "première": 4926,
      "informations": 4927,
      "suiv": 4928,
      "suis": 4929,
      "données": 4930,
      "ceux": 4931,
      "##nent": 4932,
      "adop": 4933,
      "jou": 4934,
      "consid": 4935,
      "état": 4936,
      "améli": 4937,
      "mise": 4938,
      "plusi": 4939,
      "plusieurs": 4940,
      "##ici": 4941,
      "avez": 4942,
      "mesures": 4943,
      "##tenir": 4944,
      "particip": 4945,
      "réalis": 4946,
      "##gue": 4947,
      "prom": 4948,
      "ue": 4949,
      "##hé": 4950,
      "##--": 4951,
      "pi": 4952,
      "##ov": 4953,
      "##ende": 4954,
      "rou": 4955,
      "recherche": 4956,
      "voudrais": 4957,
      "mis": 4958,
      "rédu": 4959,
      "##net": 4960,
      "##for": 4961,
      "prote": 4962,
      "##bi": 4963,
      "gouvernement": 4964,
      "puis": 4965,
      "##ay": 4966,
      "men": 4967,
      "##omp": 4968,
      "##vers": 4969,
      "of": 4970,
      "citoy": 4971,
      "fran": 4972,
      "##ôt": 4973,
      "exemple": 4974,
      "base": 4975,
      "soi": 4976,
      "politiques": 4977,
      "##ième": 4978,
      "accès": 4979,
      "alors": 4980,
      "proposition": 4981,
      "pass": 4982,
      "important": 4983,
      "fem": 4984,
      "étu": 4985,
      "##semble": 4986,
      "aide": 4987,
      "nature": 4988,
      "##av": 4989,
      "10": 4990,
      "##cture": 4991,
      "appar": 4992,
      "199": 4993,
      "économique": 4994,
      "nouvelle": 4995,
      "amélior": 4996,
      "##nol": 4997,
      "##coup": 4998,
      "santé": 4999,
      "##ception": 5000,
      "hum": 5001,
      "##per": 5002,
      "selon": 5003,
      "commiss": 5004,
      "beaucoup": 5005,
      "##tien": 5006,
      "institu": 5007,
      "stra": 5008,
      "##ode": 5009,
      "##lab": 5010,
      "faç": 5011,
      "premier": 5012,
      "##ditions": 5013,
      "##fois": 5014,
      "protection": 5015,
      "##int": 5016,
      "##aî": 5017,
      "répon": 5018,
      "possible": 5019,
      "##ress": 5020,
      "##blis": 5021,
      "##ass": 5022,
      "ty": 5023,
      "disponi": 5024,
      "##ences": 5025,
      "mondi": 5026,
      "bon": 5027,
      "indu": 5028,
      "##ositions": 5029,
      "information": 5030,
      "concernant": 5031,
      "cro": 5032,
      "années": 5033,
      "questions": 5034,
      "trouver": 5035,
      "##man": 5036,
      "ges": 5037,
      "##difi": 5038,
      "priv": 5039,
      "inté": 5040,
      "##cations": 5041,
      "ensemble": 5042,
      "procé": 5043,
      "régi": 5044,
      "##ats": 5045,
      "prendre": 5046,
      "arri": 5047,
      "sub": 5048,
      "ri": 5049,
      "entreprises": 5050,
      "tour": 5051,
      "moi": 5052,
      "##con": 5053,
      "##ges": 5054,
      "##ran": 5055,
      "##gé": 5056,
      "##ront": 5057,
      "communi": 5058,
      "pense": 5059,
      "débat": 5060,
      "péri": 5061,
      "##aille": 5062,
      "##mo": 5063,
      "bud": 5064,
      "offre": 5065,
      "##éné": 5066,
      "résul": 5067,
      "domaine": 5068,
      "##ll": 5069,
      "hist": 5070,
      "appro": 5071,
      "ress": 5072,
      "##vention": 5073,
      "mettre": 5074,
      "réser": 5075,
      "éner": 5076,
      "indust": 5077,
      "fil": 5078,
      "process": 5079,
      "élé": 5080,
      "##isme": 5081,
      "compren": 5082,
      "faci": 5083,
      "hotel": 5084,
      "##jou": 5085,
      "commissaire": 5086,
      "unique": 5087,
      "##tant": 5088,
      "profes": 5089,
      "établis": 5090,
      "utilisation": 5091,
      "##tée": 5092,
      "agit": 5093,
      "homme": 5094,
      "ouver": 5095,
      "##lème": 5096,
      "projet": 5097,
      "internet": 5098,
      "##ocra": 5099,
      "vol": 5100,
      "savoir": 5101,
      "##érer": 5102,
      "processus": 5103,
      "problème": 5104,
      "docu": 5105,
      "respect": 5106,
      "nég": 5107,
      "amende": 5108,
      "##labor": 5109,
      "société": 5110,
      "clients": 5111,
      "compé": 5112,
      "parce": 5113,
      "dit": 5114,
      "web": 5115,
      "besoin": 5116,
      "nota": 5117,
      "##era": 5118,
      "##xte": 5119,
      "gestion": 5120,
      "##abilité": 5121,
      "##rez": 5122,
      "##enant": 5123,
      "##tif": 5124,
      "ali": 5125,
      "citoyens": 5126,
      "pop": 5127,
      "lim": 5128,
      "enfants": 5129,
      "##tru": 5130,
      "##rir": 5131,
      "vale": 5132,
      "##ête": 5133,
      "façon": 5134,
      "déclar": 5135,
      "##èrement": 5136,
      "pouvoir": 5137,
      "##atives": 5138,
      "resta": 5139,
      "##ouvent": 5140,
      "démocra": 5141,
      "##lée": 5142,
      "attent": 5143,
      "##téri": 5144,
      "##ck": 5145,
      "##quoi": 5146,
      "pourquoi": 5147,
      "secteur": 5148,
      "##et": 5149,
      "médi": 5150,
      "##loi": 5151,
      "béné": 5152,
      "straté": 5153,
      "##iel": 5154,
      "résulta": 5155,
      "effet": 5156,
      "rapi": 5157,
      "conditions": 5158,
      "##érieur": 5159,
      "initi": 5160,
      "direc": 5161,
      "##nce": 5162,
      "seront": 5163,
      "mer": 5164,
      "##uri": 5165,
      "constitu": 5166,
      "restaur": 5167,
      "pendant": 5168,
      "coop": 5169,
      "agri": 5170,
      "modifi": 5171,
      "voir": 5172,
      "consé": 5173,
      "préc": 5174,
      "veu": 5175,
      "équipe": 5176,
      "intér": 5177,
      "##tres": 5178,
      "cel": 5179,
      "éch": 5180,
      "pai": 5181,
      "culture": 5182,
      "##hi": 5183,
      "concerne": 5184,
      "notamment": 5185,
      "##ources": 5186,
      "cou": 5187,
      "prév": 5188,
      "##elle": 5189,
      "ligne": 5190,
      "change": 5191,
      "reg": 5192,
      "##atis": 5193,
      "ris": 5194,
      "ta": 5195,
      "ant": 5196,
      "mesure": 5197,
      "ro": 5198,
      "popul": 5199,
      "##est": 5200,
      "fonds": 5201,
      "##lèmes": 5202,
      "ban": 5203,
      "sein": 5204,
      "##vé": 5205,
      "problèmes": 5206,
      "raison": 5207,
      "lorsque": 5208,
      "##az": 5209,
      "##gues": 5210,
      "##ali": 5211,
      "technol": 5212,
      "consomm": 5213,
      "reconn": 5214,
      "accep": 5215,
      "##nel": 5216,
      "communaut": 5217,
      "##bil": 5218,
      "##dence": 5219,
      "activités": 5220,
      "associ": 5221,
      "voy": 5222,
      "utiliser": 5223,
      "##lex": 5224,
      "confi": 5225,
      "abord": 5226,
      "##ager": 5227,
      "mois": 5228,
      "##vision": 5229,
      "règlement": 5230,
      "femmes": 5231,
      "##cie": 5232,
      "là": 5233,
      "nombreux": 5234,
      "sc": 5235,
      "##agne": 5236,
      "nouvelles": 5237,
      "techni": 5238,
      "international": 5239,
      "grâ": 5240,
      "##quent": 5241,
      "légis": 5242,
      "affaires": 5243,
      "##ica": 5244,
      "##agn": 5245,
      "grâce": 5246,
      "parten": 5247,
      "##veur": 5248,
      "##isation": 5249,
      "it": 5250,
      "dés": 5251,
      "##jets": 5252,
      "##érence": 5253,
      "cri": 5254,
      "tit": 5255,
      "défin": 5256,
      "##gment": 5257,
      "moment": 5258,
      "va": 5259,
      "collè": 5260,
      "##act": 5261,
      "na": 5262,
      "##pendant": 5263,
      "ple": 5264,
      "##tie": 5265,
      "ten": 5266,
      "œu": 5267,
      "##ément": 5268,
      "action": 5269,
      "15": 5270,
      "commerci": 5271,
      "##oo": 5272,
      "nécessaire": 5273,
      "##tenu": 5274,
      "élect": 5275,
      "profession": 5276,
      "particulier": 5277,
      "emplo": 5278,
      "législ": 5279,
      "##vez": 5280,
      "nouveaux": 5281,
      "##anger": 5282,
      "petit": 5283,
      "essent": 5284,
      "bénéfi": 5285,
      "procéd": 5286,
      "nu": 5287,
      "comb": 5288,
      "accue": 5289,
      "inves": 5290,
      "bou": 5291,
      "##acité": 5292,
      "simp": 5293,
      "constru": 5294,
      "sujet": 5295,
      "phot": 5296,
      "rése": 5297,
      "quand": 5298,
      "laque": 5299,
      "laquelle": 5300,
      "sau": 5301,
      "##illes": 5302,
      "hab": 5303,
      "##rée": 5304,
      "atte": 5305,
      "inv": 5306,
      "##xim": 5307,
      "mada": 5308,
      "industrie": 5309,
      "expéri": 5310,
      "##cement": 5311,
      "##itement": 5312,
      "celui": 5313,
      "madame": 5314,
      "us": 5315,
      "maintenant": 5316,
      "renfor": 5317,
      "trouve": 5318,
      "forme": 5319,
      "##qué": 5320,
      "##nelle": 5321,
      "##atiques": 5322,
      "rapide": 5323,
      "12": 5324,
      "admin": 5325,
      "##iser": 5326,
      "propose": 5327,
      "bonne": 5328,
      "européens": 5329,
      "fut": 5330,
      "aucun": 5331,
      "##istre": 5332,
      "emploi": 5333,
      "augment": 5334,
      "contrôle": 5335,
      "##éd": 5336,
      "##ression": 5337,
      "avait": 5338,
      "renseig": 5339,
      "eu": 5340,
      "##tive": 5341,
      "directive": 5342,
      "af": 5343,
      "mod": 5344,
      "ép": 5345,
      "moyen": 5346,
      "situé": 5347,
      "sig": 5348,
      "##lons": 5349,
      "##oli": 5350,
      "dét": 5351,
      "soient": 5352,
      "transf": 5353,
      "heur": 5354,
      "chambre": 5355,
      "minu": 5356,
      "rôle": 5357,
      "appr": 5358,
      "##istra": 5359,
      "##raient": 5360,
      "ref": 5361,
      "devrait": 5362,
      "##ormes": 5363,
      "traité": 5364,
      "##ains": 5365,
      "lib": 5366,
      "201": 5367,
      "fam": 5368,
      "remp": 5369,
      "24": 5370,
      "séri": 5371,
      "coopération": 5372,
      "vrai": 5373,
      "toutefois": 5374,
      "ve": 5375,
      "jours": 5376,
      "bure": 5377,
      "hau": 5378,
      "opp": 5379,
      "prog": 5380,
      "éval": 5381,
      "##atri": 5382,
      "effica": 5383,
      "##su": 5384,
      "mul": 5385,
      "établissement": 5386,
      "soutien": 5387,
      "mag": 5388,
      "journ": 5389,
      "##quel": 5390,
      "canadi": 5391,
      "entreprise": 5392,
      "br": 5393,
      "cô": 5394,
      "ur": 5395,
      "##ow": 5396,
      "ret": 5397,
      "##èmes": 5398,
      "dès": 5399,
      "##vient": 5400,
      "##ert": 5401,
      "sign": 5402,
      "##lier": 5403,
      "remerci": 5404,
      "coû": 5405,
      "##une": 5406,
      "lar": 5407,
      "##cup": 5408,
      "position": 5409,
      "univ": 5410,
      "objectif": 5411,
      "colle": 5412,
      "##gent": 5413,
      "page": 5414,
      "administra": 5415,
      "certaines": 5416,
      "##issance": 5417,
      "sol": 5418,
      "programmes": 5419,
      "##tage": 5420,
      "loi": 5421,
      "exc": 5422,
      "abs": 5423,
      "conta": 5424,
      "réc": 5425,
      "18": 5426,
      "##ture": 5427,
      "musi": 5428,
      "celle": 5429,
      "##lément": 5430,
      "améri": 5431,
      "sens": 5432,
      "production": 5433,
      "##table": 5434,
      "sh": 5435,
      "cin": 5436,
      "semb": 5437,
      "logi": 5438,
      "##rodu": 5439,
      "##ention": 5440,
      "cependant": 5441,
      "trop": 5442,
      "dess": 5443,
      "disc": 5444,
      "période": 5445,
      "appel": 5446,
      "pouvons": 5447,
      "quant": 5448,
      "tri": 5449,
      "exce": 5450,
      "##cc": 5451,
      "rappor": 5452,
      "##êts": 5453,
      "eau": 5454,
      "avis": 5455,
      "##fait": 5456,
      "fonda": 5457,
      "application": 5458,
      "millions": 5459,
      "2009": 5460,
      "##chi": 5461,
      "effect": 5462,
      "##ogie": 5463,
      "##reg": 5464,
      "divers": 5465,
      "suite": 5466,
      "##ub": 5467,
      "négoci": 5468,
      "cal": 5469,
      "##orme": 5470,
      "##pec": 5471,
      "exig": 5472,
      "##lant": 5473,
      "##tées": 5474,
      "ajou": 5475,
      "por": 5476,
      "instru": 5477,
      "fond": 5478,
      "##ke": 5479,
      "objectifs": 5480,
      "##gement": 5481,
      "article": 5482,
      "pris": 5483,
      "unis": 5484,
      "ressources": 5485,
      "terra": 5486,
      "destin": 5487,
      "cir": 5488,
      "étr": 5489,
      "##crip": 5490,
      "décision": 5491,
      "prov": 5492,
      "autom": 5493,
      "assemb": 5494,
      "000": 5495,
      "stru": 5496,
      "sem": 5497,
      "proch": 5498,
      "##cte": 5499,
      "##nez": 5500,
      "##gu": 5501,
      "occa": 5502,
      "renseignements": 5503,
      "##usement": 5504,
      "mme": 5505,
      "spécifi": 5506,
      "##itaire": 5507,
      "clim": 5508,
      "centra": 5509,
      "fra": 5510,
      "liber": 5511,
      "##oix": 5512,
      "aucune": 5513,
      "budge": 5514,
      "ay": 5515,
      "chois": 5516,
      "##ron": 5517,
      "alle": 5518,
      "assurer": 5519,
      "juri": 5520,
      "id": 5521,
      "serait": 5522,
      "face": 5523,
      "##asse": 5524,
      "juridi": 5525,
      "num": 5526,
      "œuvre": 5527,
      "##graph": 5528,
      "résolution": 5529,
      "obtenir": 5530,
      "ord": 5531,
      "salle": 5532,
      "engage": 5533,
      "vér": 5534,
      "différents": 5535,
      "anci": 5536,
      "produit": 5537,
      "##sie": 5538,
      "deuxième": 5539,
      "mieux": 5540,
      "franç": 5541,
      "##écu": 5542,
      "recomm": 5543,
      "##aise": 5544,
      "contribu": 5545,
      "ident": 5546,
      "souvent": 5547,
      "aider": 5548,
      "personnel": 5549,
      "sais": 5550,
      "partir": 5551,
      "##istes": 5552,
      "##if": 5553,
      "enc": 5554,
      "anim": 5555,
      "##issent": 5556,
      "aliment": 5557,
      "sû": 5558,
      "moder": 5559,
      "chez": 5560,
      "##nov": 5561,
      "##lent": 5562,
      "##nels": 5563,
      "aille": 5564,
      "dernier": 5565,
      "prés": 5566,
      "explo": 5567,
      "fais": 5568,
      "conte": 5569,
      "terme": 5570,
      "group": 5571,
      "siè": 5572,
      "##char": 5573,
      "##xe": 5574,
      "##orité": 5575,
      "att": 5576,
      "##auté": 5577,
      "##ap": 5578,
      "anal": 5579,
      "liste": 5580,
      "##vor": 5581,
      "intérieur": 5582,
      "##tient": 5583,
      "accomp": 5584,
      "séjour": 5585,
      "##venir": 5586,
      "##ensi": 5587,
      "concur": 5588,
      "suff": 5589,
      "formation": 5590,
      "jeunes": 5591,
      "##uel": 5592,
      "enreg": 5593,
      "##tifi": 5594,
      "##art": 5595,
      "##dap": 5596,
      "propre": 5597,
      "##ast": 5598,
      "enfin": 5599,
      "internationale": 5600,
      "##miner": 5601,
      "projets": 5602,
      "##ène": 5603,
      "ailleurs": 5604,
      "esti": 5605,
      "##cteurs": 5606,
      "##oph": 5607,
      "##tt": 5608,
      "##rique": 5609,
      "##rons": 5610,
      "habit": 5611,
      "##ossi": 5612,
      "membre": 5613,
      "bureau": 5614,
      "vote": 5615,
      "nombreuses": 5616,
      "cher": 5617,
      "##resse": 5618,
      "commer": 5619,
      "##iles": 5620,
      "##ly": 5621,
      "importance": 5622,
      "##uelle": 5623,
      "capit": 5624,
      "connaiss": 5625,
      "bl": 5626,
      "parc": 5627,
      "##dit": 5628,
      "##na": 5629,
      "énergie": 5630,
      "claire": 5631,
      "commune": 5632,
      "points": 5633,
      "oblig": 5634,
      "particulièrement": 5635,
      "fondament": 5636,
      "but": 5637,
      "dési": 5638,
      "30": 5639,
      "type": 5640,
      "font": 5641,
      "nord": 5642,
      "install": 5643,
      "##êche": 5644,
      "assemblée": 5645,
      "étant": 5646,
      "##arti": 5647,
      "air": 5648,
      "chi": 5649,
      "maison": 5650,
      "pourrait": 5651,
      "##tifs": 5652,
      "sci": 5653,
      "donner": 5654,
      "signi": 5655,
      "reste": 5656,
      "pol": 5657,
      "##pes": 5658,
      "sud": 5659,
      "avenir": 5660,
      "##gration": 5661,
      "##èle": 5662,
      "amb": 5663,
      "rece": 5664,
      "##oires": 5665,
      "heure": 5666,
      "ordre": 5667,
      "indé": 5668,
      "près": 5669,
      "compris": 5670,
      "outre": 5671,
      "##atif": 5672,
      "bre": 5673,
      "cé": 5674,
      "ir": 5675,
      "qua": 5676,
      "11": 5677,
      "pau": 5678,
      "ang": 5679,
      "##ori": 5680,
      "##oins": 5681,
      "##avant": 5682,
      "end": 5683,
      "proté": 5684,
      "jam": 5685,
      "##ps": 5686,
      "##cipe": 5687,
      "minutes": 5688,
      "occasion": 5689,
      "commen": 5690,
      "résultats": 5691,
      "##ograph": 5692,
      "communauté": 5693,
      "égard": 5694,
      "favor": 5695,
      "réseau": 5696,
      "création": 5697,
      "orient": 5698,
      "##issant": 5699,
      "plu": 5700,
      "##rant": 5701,
      "##alités": 5702,
      "arr": 5703,
      "bal": 5704,
      "##ones": 5705,
      "travers": 5706,
      "organisation": 5707,
      "choix": 5708,
      "travaille": 5709,
      "idé": 5710,
      "faveur": 5711,
      "##let": 5712,
      "investis": 5713,
      "transport": 5714,
      "version": 5715,
      "créer": 5716,
      "camp": 5717,
      "général": 5718,
      "hy": 5719,
      "chose": 5720,
      "sep": 5721,
      "##oser": 5722,
      "reç": 5723,
      "dernière": 5724,
      "parmi": 5725,
      "régions": 5726,
      "##anc": 5727,
      "multi": 5728,
      "prépar": 5729,
      "##air": 5730,
      "##vement": 5731,
      "rapporteur": 5732,
      "gratu": 5733,
      "déci": 5734,
      "eux": 5735,
      "##ma": 5736,
      "visite": 5737,
      "propri": 5738,
      "##tout": 5739,
      "ha": 5740,
      "adap": 5741,
      "fort": 5742,
      "règles": 5743,
      "surtout": 5744,
      "##lin": 5745,
      "évi": 5746,
      "tu": 5747,
      "titre": 5748,
      "expri": 5749,
      "france": 5750,
      "univers": 5751,
      "propositions": 5752,
      "attention": 5753,
      "besoins": 5754,
      "##issement": 5755,
      "pie": 5756,
      "##suite": 5757,
      "2008": 5758,
      "sus": 5759,
      "existe": 5760,
      "##ore": 5761,
      "##né": 5762,
      "quelque": 5763,
      "évalu": 5764,
      "actuellement": 5765,
      "##hésion": 5766,
      "##médi": 5767,
      "améliorer": 5768,
      "excell": 5769,
      "stratégie": 5770,
      "présidence": 5771,
      "gen": 5772,
      "téléph": 5773,
      "systèmes": 5774,
      "er": 5775,
      "sociale": 5776,
      "vari": 5777,
      "expli": 5778,
      "##ologi": 5779,
      "coup": 5780,
      "accueil": 5781,
      "groupes": 5782,
      "rom": 5783,
      "document": 5784,
      "carte": 5785,
      "série": 5786,
      "##can": 5787,
      "super": 5788,
      "rien": 5789,
      "écrit": 5790,
      "##king": 5791,
      "budget": 5792,
      "##olutions": 5793,
      "valeur": 5794,
      "affi": 5795,
      "possibilité": 5796,
      "déter": 5797,
      "vé": 5798,
      "intérêt": 5799,
      "##indre": 5800,
      "tur": 5801,
      "institutions": 5802,
      "expérience": 5803,
      "client": 5804,
      "responsabilité": 5805,
      "##alisation": 5806,
      "##vée": 5807,
      "mess": 5808,
      "solution": 5809,
      "impli": 5810,
      "##isions": 5811,
      "texte": 5812,
      "collègues": 5813,
      "##ign": 5814,
      "25": 5815,
      "établi": 5816,
      "##oles": 5817,
      "##ses": 5818,
      "condu": 5819,
      "formul": 5820,
      "conne": 5821,
      "employ": 5822,
      "##----": 5823,
      "heures": 5824,
      "jamais": 5825,
      "##land": 5826,
      "##itation": 5827,
      "outi": 5828,
      "tel": 5829,
      "recommand": 5830,
      "##vation": 5831,
      "exécu": 5832,
      "##tés": 5833,
      "conser": 5834,
      "##dio": 5835,
      "sites": 5836,
      "##ogue": 5837,
      "différentes": 5838,
      "bo": 5839,
      "pêche": 5840,
      "pens": 5841,
      "del": 5842,
      "compos": 5843,
      "méth": 5844,
      "pratique": 5845,
      "san": 5846,
      "##vres": 5847,
      "##aître": 5848,
      "restaurant": 5849,
      "parties": 5850,
      "##étaire": 5851,
      "##lais": 5852,
      "crois": 5853,
      "saint": 5854,
      "##sez": 5855,
      "édu": 5856,
      "gu": 5857,
      "##rès": 5858,
      "donné": 5859,
      "\".": 5860,
      "##fie": 5861,
      "fab": 5862,
      "##entes": 5863,
      "14": 5864,
      "présente": 5865,
      "étaient": 5866,
      "consul": 5867,
      "amendements": 5868,
      "##part": 5869,
      "allem": 5870,
      "lo": 5871,
      "croissance": 5872,
      "##tation": 5873,
      "collabor": 5874,
      "haut": 5875,
      "crise": 5876,
      "espace": 5877,
      "##ock": 5878,
      "go": 5879,
      "chacu": 5880,
      "efforts": 5881,
      "##ak": 5882,
      "##ètres": 5883,
      "juste": 5884,
      "tradition": 5885,
      "##aud": 5886,
      "technologi": 5887,
      "rus": 5888,
      "##cier": 5889,
      "##rier": 5890,
      "reven": 5891,
      "envoy": 5892,
      "lesque": 5893,
      "##ath": 5894,
      "voyage": 5895,
      "principe": 5896,
      "aura": 5897,
      "##orter": 5898,
      "sor": 5899,
      "tels": 5900,
      "##lusi": 5901,
      "2010": 5902,
      "satis": 5903,
      "autorités": 5904,
      "maj": 5905,
      "seul": 5906,
      "importante": 5907,
      "##ablement": 5908,
      "##lection": 5909,
      "diffici": 5910,
      "17": 5911,
      "garantir": 5912,
      "ayant": 5913,
      "commerce": 5914,
      "objet": 5915,
      "ache": 5916,
      "##itable": 5917,
      "économie": 5918,
      "16": 5919,
      "finance": 5920,
      "complè": 5921,
      "mus": 5922,
      "réglement": 5923,
      "lutte": 5924,
      "quelle": 5925,
      "tot": 5926,
      "##ade": 5927,
      "libre": 5928,
      "##vid": 5929,
      "quatre": 5930,
      "intég": 5931,
      "rendre": 5932,
      "».": 5933,
      "##oses": 5934,
      "etc": 5935,
      "»,": 5936,
      "encour": 5937,
      "har": 5938,
      "##ché": 5939,
      "famille": 5940,
      "##utés": 5941,
      "##cles": 5942,
      "oct": 5943,
      "histor": 5944,
      "dispose": 5945,
      "##cs": 5946,
      "soli": 5947,
      "minist": 5948,
      "##ension": 5949,
      "réun": 5950,
      "13": 5951,
      "##élic": 5952,
      "liberté": 5953,
      "entra": 5954,
      "supplément": 5955,
      "étudi": 5956,
      "début": 5957,
      "nécessaires": 5958,
      "frais": 5959,
      "ordin": 5960,
      "histoire": 5961,
      "passer": 5962,
      "##ctives": 5963,
      "publique": 5964,
      "porte": 5965,
      "2007": 5966,
      "cop": 5967,
      "communication": 5968,
      "traitement": 5969,
      "présidente": 5970,
      "découv": 5971,
      "national": 5972,
      "paris": 5973,
      "lit": 5974,
      "contenu": 5975,
      "remar": 5976,
      "100": 5977,
      "ensuite": 5978,
      "relations": 5979,
      "##gré": 5980,
      "##stes": 5981,
      "exa": 5982,
      "pay": 5983,
      "voit": 5984,
      "visant": 5985,
      "vidé": 5986,
      "fl": 5987,
      "##rom": 5988,
      "##ki": 5989,
      "##quez": 5990,
      "lequel": 5991,
      "consommateurs": 5992,
      "espr": 5993,
      "obser": 5994,
      "peup": 5995,
      "demander": 5996,
      "direction": 5997,
      "##ards": 5998,
      "lorsqu": 5999,
      "##aît": 6000,
      "économiques": 6001,
      "##fic": 6002,
      "concurrence": 6003,
      "évé": 6004,
      "espère": 6005,
      "##itaires": 6006,
      "enseig": 6007,
      "##cessi": 6008,
      "cuis": 6009,
      "sorte": 6010,
      "argent": 6011,
      "bel": 6012,
      "grands": 6013,
      "réponse": 6014,
      "disponible": 6015,
      "répondre": 6016,
      "##étés": 6017,
      "domaines": 6018,
      "##omb": 6019,
      "navi": 6020,
      "\",": 6021,
      "introdu": 6022,
      "##titue": 6023,
      "volont": 6024,
      "##ze": 6025,
      "actions": 6026,
      "cause": 6027,
      "éléments": 6028,
      "##ttes": 6029,
      "population": 6030,
      "##ême": 6031,
      "##gnes": 6032,
      "territ": 6033,
      "disposition": 6034,
      "élabor": 6035,
      "he": 6036,
      "procédure": 6037,
      "mondiale": 6038,
      "##dam": 6039,
      "sélection": 6040,
      "##tir": 6041,
      "##adi": 6042,
      "seule": 6043,
      "passe": 6044,
      "moyens": 6045,
      "permettre": 6046,
      "vraiment": 6047,
      "étrang": 6048,
      "mot": 6049,
      "##cteur": 6050,
      "sûr": 6051,
      "##oth": 6052,
      "donne": 6053,
      "nations": 6054,
      "députés": 6055,
      "gé": 6056,
      "termes": 6057,
      "incl": 6058,
      "coord": 6059,
      "glo": 6060,
      "##sements": 6061,
      "##fication": 6062,
      "##mon": 6063,
      "conform": 6064,
      "opéra": 6065,
      "simple": 6066,
      "ait": 6067,
      "conséque": 6068,
      "compéten": 6069,
      "atta": 6070,
      "constitue": 6071,
      "structure": 6072,
      "approche": 6073,
      "##taine": 6074,
      "val": 6075,
      "##ms": 6076,
      "essentie": 6077,
      "rapidement": 6078,
      "devant": 6079,
      "emb": 6080,
      "##tice": 6081,
      "environ": 6082,
      "large": 6083,
      "celles": 6084,
      "##gh": 6085,
      "normes": 6086,
      "distribu": 6087,
      "rev": 6088,
      "##atifs": 6089,
      "##ith": 6090,
      "##ennes": 6091,
      "esprit": 6092,
      "véri": 6093,
      "aér": 6094,
      "##lir": 6095,
      "##endu": 6096,
      "félic": 6097,
      "date": 6098,
      "déjeu": 6099,
      "mêmes": 6100,
      "semble": 6101,
      "##assi": 6102,
      "disponibles": 6103,
      "##avantage": 6104,
      "##ète": 6105,
      "sav": 6106,
      "pal": 6107,
      "clairement": 6108,
      "simplement": 6109,
      "précé": 6110,
      "efficace": 6111,
      "telle": 6112,
      "communautaire": 6113,
      "zone": 6114,
      "pan": 6115,
      "hommes": 6116,
      "conférence": 6117,
      "##gine": 6118,
      "plupart": 6119,
      "européennes": 6120,
      "perf": 6121,
      "législation": 6122,
      "convention": 6123,
      "##fier": 6124,
      "amendement": 6125,
      "##pend": 6126,
      "paix": 6127,
      "sent": 6128,
      "intéress": 6129,
      "fu": 6130,
      "##uxe": 6131,
      "discus": 6132,
      "davantage": 6133,
      "50": 6134,
      "fabri": 6135,
      "élar": 6136,
      "##ind": 6137,
      "risque": 6138,
      "blo": 6139,
      "hu": 6140,
      "messi": 6141,
      "choses": 6142,
      "##tez": 6143,
      "##gin": 6144,
      "##alogue": 6145,
      "gui": 6146,
      "##ède": 6147,
      "vente": 6148,
      "##uve": 6149,
      "##arité": 6150,
      "commentaires": 6151,
      "ital": 6152,
      "sour": 6153,
      "##lit": 6154,
      "innov": 6155,
      "autant": 6156,
      "équip": 6157,
      "documents": 6158,
      "fai": 6159,
      "vac": 6160,
      "entière": 6161,
      "importe": 6162,
      "sui": 6163,
      "##vier": 6164,
      "taux": 6165,
      "juridique": 6166,
      "##cident": 6167,
      "thé": 6168,
      "adresse": 6169,
      "##cal": 6170,
      "table": 6171,
      "dispos": 6172,
      "certaine": 6173,
      "extr": 6174,
      "euros": 6175,
      "solutions": 6176,
      "êtes": 6177,
      "messieurs": 6178,
      "art": 6179,
      "offici": 6180,
      "préf": 6181,
      "poss": 6182,
      "succ": 6183,
      "directement": 6184,
      "plut": 6185,
      "ap": 6186,
      "ber": 6187,
      "dernières": 6188,
      "grandes": 6189,
      "côté": 6190,
      "rend": 6191,
      "##illez": 6192,
      "mai": 6193,
      "guer": 6194,
      "##cr": 6195,
      "parfait": 6196,
      "roy": 6197,
      "gens": 6198,
      "##ater": 6199,
      "corre": 6200,
      "français": 6201,
      "lis": 6202,
      "glob": 6203,
      "technique": 6204,
      "arch": 6205,
      "agrico": 6206,
      "accé": 6207,
      "initiative": 6208,
      "euro": 6209,
      "contact": 6210,
      "acqu": 6211,
      "financement": 6212,
      "##nelles": 6213,
      "2006": 6214,
      "nécessité": 6215,
      "annon": 6216,
      "cinq": 6217,
      "##mique": 6218,
      "marchés": 6219,
      "déjeuner": 6220,
      "##éro": 6221,
      "##vant": 6222,
      "bois": 6223,
      "##onde": 6224,
      "da": 6225,
      "justice": 6226,
      "matéri": 6227,
      "relative": 6228,
      "piè": 6229,
      "permis": 6230,
      "bâ": 6231,
      "précis": 6232,
      "direct": 6233,
      "tota": 6234,
      "exception": 6235,
      "##ed": 6236,
      "ouv": 6237,
      "##moi": 6238,
      "évaluation": 6239,
      "éducation": 6240,
      "considéra": 6241,
      "promo": 6242,
      "plutôt": 6243,
      "éto": 6244,
      "négociations": 6245,
      "exerci": 6246,
      "coule": 6247,
      "ceci": 6248,
      "réus": 6249,
      "##onti": 6250,
      "##nces": 6251,
      "##cine": 6252,
      "##rions": 6253,
      "éche": 6254,
      "origine": 6255,
      "##gor": 6256,
      "contrib": 6257,
      "##ster": 6258,
      "##ft": 6259,
      "sup": 6260,
      "exigences": 6261,
      "cuisine": 6262,
      "##dis": 6263,
      "voie": 6264,
      "##amment": 6265,
      "fis": 6266,
      "fix": 6267,
      "##dames": 6268,
      "changement": 6269,
      "mesdames": 6270,
      "activité": 6271,
      "mention": 6272,
      "conséquent": 6273,
      "suivant": 6274,
      "tiers": 6275,
      "##év": 6276,
      "proxim": 6277,
      "agré": 6278,
      "vu": 6279,
      "mor": 6280,
      "mode": 6281,
      "semaine": 6282,
      "##cription": 6283,
      "ach": 6284,
      "certain": 6285,
      "travailleurs": 6286,
      "el": 6287,
      "all": 6288,
      "veuillez": 6289,
      "montré": 6290,
      "musique": 6291,
      "was": 6292,
      "##mination": 6293,
      "pourrez": 6294,
      "suffis": 6295,
      "sty": 6296,
      "image": 6297,
      "confor": 6298,
      "##oque": 6299,
      "équ": 6300,
      "##iller": 6301,
      "##rés": 6302,
      "##rences": 6303,
      "tradu": 6304,
      "remercier": 6305,
      "##stru": 6306,
      "uniquement": 6307,
      "social": 6308,
      "meilleure": 6309,
      "##lég": 6310,
      "infra": 6311,
      "##œur": 6312,
      "voici": 6313,
      "devraient": 6314,
      "exist": 6315,
      "meilleur": 6316,
      "##aces": 6317,
      "ministre": 6318,
      "préoc": 6319,
      "fournir": 6320,
      "actuelle": 6321,
      "attend": 6322,
      "##lusion": 6323,
      "transpa": 6324,
      "##ination": 6325,
      "étoiles": 6326,
      "fig": 6327,
      "siècle": 6328,
      "##istance": 6329,
      "déli": 6330,
      "continuer": 6331,
      "effectu": 6332,
      "telles": 6333,
      "caract": 6334,
      "décisions": 6335,
      "comité": 6336,
      "extrême": 6337,
      "tent": 6338,
      "vill": 6339,
      "##pit": 6340,
      "réduire": 6341,
      "appré": 6342,
      "stratégi": 6343,
      "sch": 6344,
      "déce": 6345,
      "manif": 6346,
      "##resp": 6347,
      "dieu": 6348,
      "durant": 6349,
      "##mettre": 6350,
      "##nd": 6351,
      "##ting": 6352,
      "quarti": 6353,
      "déclaration": 6354,
      "dispositions": 6355,
      "##rou": 6356,
      "anti": 6357,
      "éviter": 6358,
      "##ition": 6359,
      "capacité": 6360,
      "contrô": 6361,
      "qual": 6362,
      "soutenir": 6363,
      "##sui": 6364,
      "temp": 6365,
      "viol": 6366,
      "##uels": 6367,
      "candi": 6368,
      "##va": 6369,
      "##culture": 6370,
      "terr": 6371,
      "appare": 6372,
      "responsable": 6373,
      "intérêts": 6374,
      "##ariat": 6375,
      "techniques": 6376,
      "##ton": 6377,
      "rée": 6378,
      "progrès": 6379,
      "jan": 6380,
      "propres": 6381,
      "permettant": 6382,
      "organisations": 6383,
      "prise": 6384,
      "indépend": 6385,
      "##ût": 6386,
      "##opri": 6387,
      "partenaires": 6388,
      "pratiques": 6389,
      "diri": 6390,
      "crit": 6391,
      "individ": 6392,
      "construction": 6393,
      "proc": 6394,
      "##ils": 6395,
      "compéti": 6396,
      "##tim": 6397,
      "entraî": 6398,
      "utilisateur": 6399,
      "##titude": 6400,
      "poursui": 6401,
      "renforcer": 6402,
      "##vis": 6403,
      "terre": 6404,
      "féd": 6405,
      "utilisateurs": 6406,
      "trouv": 6407,
      "financière": 6408,
      "passé": 6409,
      "##ienne": 6410,
      "retour": 6411,
      "aérop": 6412,
      "##mili": 6413,
      "spécialis": 6414,
      "pied": 6415,
      "##vés": 6416,
      "identifi": 6417,
      "##ctures": 6418,
      "téléphone": 6419,
      "chau": 6420,
      "##entifi": 6421,
      "chacun": 6422,
      "rapports": 6423,
      "##vie": 6424,
      "##ration": 6425,
      "hé": 6426,
      "succès": 6427,
      "élarg": 6428,
      "##gence": 6429,
      "##lez": 6430,
      "ven": 6431,
      "2000": 6432,
      "##tives": 6433,
      "##od": 6434,
      "code": 6435,
      "2005": 6436,
      "reli": 6437,
      "corresp": 6438,
      "cœur": 6439,
      "##cont": 6440,
      "##ario": 6441,
      "banque": 6442,
      "dépens": 6443,
      "total": 6444,
      "exercice": 6445,
      "émis": 6446,
      "importants": 6447,
      "##yse": 6448,
      "##erts": 6449,
      "juin": 6450,
      "idée": 6451,
      "images": 6452,
      "charge": 6453,
      "##tels": 6454,
      "mondial": 6455,
      "##erie": 6456,
      "endro": 6457,
      "téléchar": 6458,
      "satisf": 6459,
      "maladi": 6460,
      "##ere": 6461,
      "difficile": 6462,
      "offrir": 6463,
      "main": 6464,
      "##illet": 6465,
      "extra": 6466,
      "entrée": 6467,
      "dossi": 6468,
      "én": 6469,
      "new": 6470,
      "pis": 6471,
      "##hicu": 6472,
      "dialogue": 6473,
      "engagement": 6474,
      "détail": 6475,
      "démocratie": 6476,
      "travaux": 6477,
      "##quant": 6478,
      "essentiel": 6479,
      "jeux": 6480,
      "##icacité": 6481,
      "proximité": 6482,
      "générale": 6483,
      "association": 6484,
      "valeurs": 6485,
      "loin": 6486,
      "guerre": 6487,
      "##ciel": 6488,
      "voulons": 6489,
      "four": 6490,
      "aller": 6491,
      "véhicu": 6492,
      "plein": 6493,
      "haute": 6494,
      "confir": 6495,
      "carac": 6496,
      "provin": 6497,
      "fronti": 6498,
      "retr": 6499,
      "auprès": 6500,
      "réception": 6501,
      "atteint": 6502,
      "##ister": 6503,
      "maxim": 6504,
      "##dez": 6505,
      "extéri": 6506,
      "tari": 6507,
      "contraire": 6508,
      "qué": 6509,
      "##mette": 6510,
      "##ld": 6511,
      "lois": 6512,
      "jard": 6513,
      "##èrent": 6514,
      "participation": 6515,
      "gaz": 6516,
      "##ctur": 6517,
      "permettra": 6518,
      "##chiers": 6519,
      "fichiers": 6520,
      "sensi": 6521,
      "champ": 6522,
      "technologie": 6523,
      "constitution": 6524,
      "##quie": 6525,
      "efficacité": 6526,
      "##ug": 6527,
      "petite": 6528,
      "km": 6529,
      "laiss": 6530,
      "oubli": 6531,
      "liv": 6532,
      "##bec": 6533,
      "clair": 6534,
      "caracté": 6535,
      "troisième": 6536,
      "voté": 6537,
      "principes": 6538,
      "lumi": 6539,
      "gam": 6540,
      "cy": 6541,
      "cliquez": 6542,
      "afrique": 6543,
      "travailler": 6544,
      "évent": 6545,
      "vit": 6546,
      "condition": 6547,
      "##ret": 6548,
      "##lue": 6549,
      "résultat": 6550,
      "caté": 6551,
      "quoi": 6552,
      "tran": 6553,
      "immo": 6554,
      "régime": 6555,
      "##ha": 6556,
      "rappel": 6557,
      "aurait": 6558,
      "coûts": 6559,
      "trouverez": 6560,
      "majorité": 6561,
      "##atoire": 6562,
      "feu": 6563,
      "##action": 6564,
      "uni": 6565,
      "##qués": 6566,
      "nationale": 6567,
      "américa": 6568,
      "défense": 6569,
      "contexte": 6570,
      "minim": 6571,
      "##lacement": 6572,
      "sociétés": 6573,
      "##uli": 6574,
      "mort": 6575,
      "conç": 6576,
      "budg": 6577,
      "immédi": 6578,
      "équili": 6579,
      "gros": 6580,
      "scientifi": 6581,
      "ajouter": 6582,
      "##égi": 6583,
      "##vité": 6584,
      "##arder": 6585,
      "historique": 6586,
      "parler": 6587,
      "stand": 6588,
      "plais": 6589,
      "mécan": 6590,
      "raisons": 6591,
      "présenter": 6592,
      "##onnes": 6593,
      "198": 6594,
      "##térie": 6595,
      "requ": 6596,
      "victi": 6597,
      "21": 6598,
      "durable": 6599,
      "montre": 6600,
      "souhaite": 6601,
      "norm": 6602,
      "instal": 6603,
      "##contre": 6604,
      "six": 6605,
      "soir": 6606,
      "##uellement": 6607,
      "consci": 6608,
      "terror": 6609,
      "mars": 6610,
      "décembre": 6611,
      "force": 6612,
      "22": 6613,
      "adhésion": 6614,
      "technologies": 6615,
      "prend": 6616,
      "##ligner": 6617,
      "bord": 6618,
      "##tern": 6619,
      "##lor": 6620,
      "préoccup": 6621,
      "conten": 6622,
      "##sse": 6623,
      "catégor": 6624,
      "##rage": 6625,
      "##odes": 6626,
      "appropri": 6627,
      "souli": 6628,
      "doute": 6629,
      "logiciel": 6630,
      "##moins": 6631,
      "00": 6632,
      "atteindre": 6633,
      "commande": 6634,
      "vir": 6635,
      "longue": 6636,
      "##do": 6637,
      "##pects": 6638,
      "malh": 6639,
      "modèle": 6640,
      "réalité": 6641,
      "sim": 6642,
      "accords": 6643,
      "représente": 6644,
      "nationaux": 6645,
      "facil": 6646,
      "complex": 6647,
      "centrale": 6648,
      "fru": 6649,
      "tiens": 6650,
      "administration": 6651,
      "famili": 6652,
      "viole": 6653,
      "stock": 6654,
      "études": 6655,
      "ouverture": 6656,
      "protéger": 6657,
      "concent": 6658,
      "référence": 6659,
      "bus": 6660,
      "tex": 6661,
      "démar": 6662,
      "##gur": 6663,
      "analyse": 6664,
      "perform": 6665,
      "vidéo": 6666,
      "with": 6667,
      "petites": 6668,
      "paque": 6669,
      "journée": 6670,
      "institution": 6671,
      "##ows": 6672,
      "##ase": 6673,
      "##bilités": 6674,
      "oeu": 6675,
      "##aisse": 6676,
      "utilisé": 6677,
      "profiter": 6678,
      "contient": 6679,
      "consult": 6680,
      "##mée": 6681,
      "conv": 6682,
      "##ork": 6683,
      "tir": 6684,
      "fich": 6685,
      "human": 6686,
      "soins": 6687,
      "enqu": 6688,
      "véritable": 6689,
      "vois": 6690,
      "##rents": 6691,
      "confiance": 6692,
      "##orités": 6693,
      "##ule": 6694,
      "gre": 6695,
      "##pl": 6696,
      "septe": 6697,
      "##ffre": 6698,
      "origin": 6699,
      "télévision": 6700,
      "##gueur": 6701,
      "précédent": 6702,
      "##lise": 6703,
      "nove": 6704,
      "parta": 6705,
      "souligner": 6706,
      "2004": 6707,
      "signifie": 6708,
      "mots": 6709,
      "intégration": 6710,
      "confort": 6711,
      "exer": 6712,
      "##tons": 6713,
      "##agra": 6714,
      "lin": 6715,
      "##ronique": 6716,
      "puisse": 6717,
      "bat": 6718,
      "comprend": 6719,
      "surve": 6720,
      "##ia": 6721,
      "unies": 6722,
      "vient": 6723,
      "accessi": 6724,
      "erre": 6725,
      "collaboration": 6726,
      "fichier": 6727,
      "réduction": 6728,
      "veut": 6729,
      "souhaitez": 6730,
      "agriculture": 6731,
      "affir": 6732,
      "perspe": 6733,
      "faites": 6734,
      "vigueur": 6735,
      "extérieur": 6736,
      "répu": 6737,
      "risques": 6738,
      "##ril": 6739,
      "convient": 6740,
      "promotion": 6741,
      "##aissance": 6742,
      "immi": 6743,
      "artis": 6744,
      "assez": 6745,
      "relatives": 6746,
      "##lande": 6747,
      "septembre": 6748,
      "diffic": 6749,
      "##ventions": 6750,
      "quartier": 6751,
      "agence": 6752,
      "tes": 6753,
      "sommet": 6754,
      "##blement": 6755,
      "concep": 6756,
      "effets": 6757,
      "aspects": 6758,
      "appelle": 6759,
      "consac": 6760,
      "preuve": 6761,
      "inde": 6762,
      "spa": 6763,
      "octo": 6764,
      "mission": 6765,
      "##érieure": 6766,
      "petits": 6767,
      "route": 6768,
      "##demment": 6769,
      "mili": 6770,
      "##cité": 6771,
      "dix": 6772,
      "caractéris": 6773,
      "##tables": 6774,
      "discu": 6775,
      "##cent": 6776,
      "location": 6777,
      "réunion": 6778,
      "essay": 6779,
      "##bonne": 6780,
      "##fique": 6781,
      "comprom": 6782,
      "##quée": 6783,
      "gamme": 6784,
      "promouv": 6785,
      "gouvernements": 6786,
      "statu": 6787,
      "tâ": 6788,
      "##cale": 6789,
      "zones": 6790,
      "mach": 6791,
      "suivi": 6792,
      "écou": 6793,
      "post": 6794,
      "##ob": 6795,
      "##rendre": 6796,
      "importantes": 6797,
      "bout": 6798,
      "solid": 6799,
      "entendu": 6800,
      "dol": 6801,
      "style": 6802,
      "exemp": 6803,
      "##téra": 6804,
      "volonté": 6805,
      "excellent": 6806,
      "départ": 6807,
      "langue": 6808,
      "section": 6809,
      "lic": 6810,
      "ul": 6811,
      "you": 6812,
      "étude": 6813,
      "russie": 6814,
      "idéal": 6815,
      "##gés": 6816,
      "jouer": 6817,
      "##cap": 6818,
      "publics": 6819,
      "octobre": 6820,
      "gau": 6821,
      "janvier": 6822,
      "opin": 6823,
      "prot": 6824,
      "développer": 6825,
      "apporter": 6826,
      "command": 6827,
      "entièrement": 6828,
      "##ails": 6829,
      "##abil": 6830,
      "mand": 6831,
      "neu": 6832,
      "##ach": 6833,
      "chale": 6834,
      "subst": 6835,
      "estime": 6836,
      "##ourg": 6837,
      "ge": 6838,
      "stu": 6839,
      "rencont": 6840,
      "danger": 6841,
      "contribuer": 6842,
      "québec": 6843,
      "autoris": 6844,
      "peux": 6845,
      "fournisse": 6846,
      "connex": 6847,
      "cat": 6848,
      "impression": 6849,
      "ordinateur": 6850,
      "##oit": 6851,
      "##osé": 6852,
      "40": 6853,
      "critères": 6854,
      "exclusi": 6855,
      "exam": 6856,
      "##ates": 6857,
      "bénéfici": 6858,
      "tend": 6859,
      "numéro": 6860,
      "aéroport": 6861,
      "##mar": 6862,
      "gol": 6863,
      "moderne": 6864,
      "source": 6865,
      "##len": 6866,
      "##auv": 6867,
      "lignes": 6868,
      "fre": 6869,
      "secteurs": 6870,
      "rési": 6871,
      "avaient": 6872,
      "réuni": 6873,
      "immobi": 6874,
      "correspond": 6875,
      "potent": 6876,
      "lisbonne": 6877,
      "promouvoir": 6878,
      "cu": 6879,
      "##ry": 6880,
      "bra": 6881,
      "retra": 6882,
      "affe": 6883,
      "extrêmement": 6884,
      "financiers": 6885,
      "partage": 6886,
      "nationales": 6887,
      "navig": 6888,
      "##rière": 6889,
      "comprendre": 6890,
      "##str": 6891,
      "ça": 6892,
      "trib": 6893,
      "pourra": 6894,
      "novembre": 6895,
      "pé": 6896,
      "éli": 6897,
      "changements": 6898,
      "enregistre": 6899,
      "sex": 6900,
      "##ah": 6901,
      "club": 6902,
      "ontario": 6903,
      "emplois": 6904,
      "##ologique": 6905,
      "malheure": 6906,
      "bâti": 6907,
      "hor": 6908,
      "sin": 6909,
      "piscine": 6910,
      "automatique": 6911,
      "anglais": 6912,
      "outils": 6913,
      "gal": 6914,
      "pati": 6915,
      "quo": 6916,
      "archite": 6917,
      "accro": 6918,
      "civ": 6919,
      "malgré": 6920,
      "compétences": 6921,
      "maje": 6922,
      "train": 6923,
      "23": 6924,
      "##ige": 6925,
      "signal": 6926,
      "méd": 6927,
      "terrain": 6928,
      "##ane": 6929,
      "##anni": 6930,
      "lou": 6931,
      "mouve": 6932,
      "##nies": 6933,
      "commencer": 6934,
      "##uelles": 6935,
      "nuit": 6936,
      "pén": 6937,
      "via": 6938,
      "merci": 6939,
      "conformément": 6940,
      "prochaine": 6941,
      "alli": 6942,
      "décor": 6943,
      "##êtes": 6944,
      "événements": 6945,
      "flo": 6946,
      "message": 6947,
      "parfois": 6948,
      "##istr": 6949,
      "énergé": 6950,
      "prises": 6951,
      "transports": 6952,
      "suivre": 6953,
      "amélioration": 6954,
      "##uy": 6955,
      "procédures": 6956,
      "devez": 6957,
      "spec": 6958,
      "compar": 6959,
      "assurance": 6960,
      "patri": 6961,
      "manque": 6962,
      "malheureusement": 6963,
      "proche": 6964,
      "##ox": 6965,
      "plac": 6966,
      "livre": 6967,
      "permette": 6968,
      "2003": 6969,
      "élément": 6970,
      "##rées": 6971,
      "dépend": 6972,
      "chemin": 6973,
      "##lai": 6974,
      "salon": 6975,
      "brit": 6976,
      "plaisir": 6977,
      "photos": 6978,
      "##ina": 6979,
      "perman": 6980,
      "pauvre": 6981,
      "impact": 6982,
      "##urent": 6983,
      "serv": 6984,
      "fédéra": 6985,
      "augmentation": 6986,
      "##yp": 6987,
      "##ologie": 6988,
      "tenu": 6989,
      "appe": 6990,
      "possibilités": 6991,
      "continu": 6992,
      "réforme": 6993,
      "qualifi": 6994,
      "sociaux": 6995,
      "caractère": 6996,
      "exploitation": 6997,
      "##ka": 6998,
      "##ity": 6999,
      "bri": 7000,
      "##naire": 7001,
      "tard": 7002,
      "reçu": 7003,
      "élargissement": 7004,
      "##go": 7005,
      "permettent": 7006,
      "participer": 7007,
      "##fe": 7008,
      "harmon": 7009,
      "##phe": 7010,
      "couver": 7011,
      "##cemment": 7012,
      "paragra": 7013,
      "récemment": 7014,
      "démocratique": 7015,
      "stabilité": 7016,
      "accepter": 7017,
      "##resser": 7018,
      "salles": 7019,
      "dessus": 7020,
      "my": 7021,
      "##tiens": 7022,
      "dim": 7023,
      "##cre": 7024,
      "facile": 7025,
      "rester": 7026,
      "victimes": 7027,
      "chine": 7028,
      "certifi": 7029,
      "monta": 7030,
      "venir": 7031,
      "complète": 7032,
      "##érés": 7033,
      "intervention": 7034,
      "isra": 7035,
      "ii": 7036,
      "ouvert": 7037,
      "conséquences": 7038,
      "deven": 7039,
      "libéra": 7040,
      "échange": 7041,
      "##èque": 7042,
      "présence": 7043,
      "circul": 7044,
      "dra": 7045,
      "électronique": 7046,
      "##neur": 7047,
      "tenir": 7048,
      "articles": 7049,
      "vacances": 7050,
      "internationales": 7051,
      "chef": 7052,
      "##ulation": 7053,
      "##andi": 7054,
      "instruments": 7055,
      "animaux": 7056,
      "##gar": 7057,
      "juillet": 7058,
      "turquie": 7059,
      "évolution": 7060,
      "transform": 7061,
      "pages": 7062,
      "opération": 7063,
      "##aste": 7064,
      "##mation": 7065,
      "double": 7066,
      "adopter": 7067,
      "envis": 7068,
      "##cieux": 7069,
      "alb": 7070,
      "remercie": 7071,
      "infrastru": 7072,
      "opport": 7073,
      "professionnels": 7074,
      "##ém": 7075,
      "rue": 7076,
      "wind": 7077,
      "garantie": 7078,
      "hon": 7079,
      "let": 7080,
      "##ana": 7081,
      "responsables": 7082,
      "crédit": 7083,
      "##ître": 7084,
      "propriété": 7085,
      "rév": 7086,
      "phy": 7087,
      "derniers": 7088,
      "dollar": 7089,
      "montant": 7090,
      "fré": 7091,
      "##ormais": 7092,
      "principaux": 7093,
      "conver": 7094,
      "##face": 7095,
      "entier": 7096,
      "durée": 7097,
      "installation": 7098,
      "connaissance": 7099,
      "mauv": 7100,
      "appliquer": 7101,
      "spécifiques": 7102,
      "dy": 7103,
      "##tro": 7104,
      "design": 7105,
      "##itent": 7106,
      "désormais": 7107,
      "##éré": 7108,
      "##dats": 7109,
      "peuple": 7110,
      "égalité": 7111,
      "découvrir": 7112,
      "pourraient": 7113,
      "peine": 7114,
      "dépenses": 7115,
      "##aie": 7116,
      "##urer": 7117,
      "liens": 7118,
      "pier": 7119,
      "wh": 7120,
      "plage": 7121,
      "intention": 7122,
      "##érique": 7123,
      "##aume": 7124,
      "dist": 7125,
      "##joint": 7126,
      "engag": 7127,
      "niveaux": 7128,
      "établir": 7129,
      "lesquels": 7130,
      "convain": 7131,
      "convi": 7132,
      "##ino": 7133,
      "terrasse": 7134,
      "aéri": 7135,
      "chaî": 7136,
      "principal": 7137,
      "faisant": 7138,
      "rur": 7139,
      "appartement": 7140,
      "ouest": 7141,
      "réaliser": 7142,
      "compromis": 7143,
      "jap": 7144,
      "##anmoins": 7145,
      "##tidi": 7146,
      "facilement": 7147,
      "##bile": 7148,
      "néanmoins": 7149,
      "fins": 7150,
      "jardin": 7151,
      "##âte": 7152,
      "continue": 7153,
      "village": 7154,
      "##naires": 7155,
      "aj": 7156,
      "magni": 7157,
      "adoption": 7158,
      "empê": 7159,
      "classi": 7160,
      "enfant": 7161,
      "##ok": 7162,
      "meilleurs": 7163,
      "influe": 7164,
      "termin": 7165,
      "examen": 7166,
      "##érons": 7167,
      "corps": 7168,
      "ww": 7169,
      "absolu": 7170,
      "pièces": 7171,
      "wi": 7172,
      "lien": 7173,
      "##cro": 7174,
      "##ude": 7175,
      "##ano": 7176,
      "époque": 7177,
      "britanni": 7178,
      "##pect": 7179,
      "##temps": 7180,
      "financier": 7181,
      "proven": 7182,
      "ora": 7183,
      "souff": 7184,
      "lab": 7185,
      "##20": 7186,
      "financières": 7187,
      "##tements": 7188,
      "##cée": 7189,
      "##line": 7190,
      "deme": 7191,
      "marque": 7192,
      "humains": 7193,
      "respecter": 7194,
      "partenariat": 7195,
      "recevoir": 7196,
      "réguli": 7197,
      "##blique": 7198,
      "endroit": 7199,
      "transparence": 7200,
      "##oudre": 7201,
      "from": 7202,
      "##nés": 7203,
      "dessous": 7204,
      "instrument": 7205,
      "photo": 7206,
      "opportun": 7207,
      "distribution": 7208,
      "organismes": 7209,
      "demandé": 7210,
      "cherche": 7211,
      "##mos": 7212,
      "##gné": 7213,
      "fournit": 7214,
      "compagn": 7215,
      "spécifique": 7216,
      "autour": 7217,
      "##quées": 7218,
      "quotidi": 7219,
      "avril": 7220,
      "dû": 7221,
      "station": 7222,
      "civi": 7223,
      "longtemps": 7224,
      "parole": 7225,
      "contribution": 7226,
      "gauche": 7227,
      "renouve": 7228,
      "##étaires": 7229,
      "écran": 7230,
      "##ctif": 7231,
      "puisque": 7232,
      "##bres": 7233,
      "fes": 7234,
      "équipements": 7235,
      "refus": 7236,
      "initiatives": 7237,
      "inqui": 7238,
      "genre": 7239,
      "montréal": 7240,
      "atti": 7241,
      "www": 7242,
      "urgence": 7243,
      "##clé": 7244,
      "ambi": 7245,
      "agricole": 7246,
      "fonctionnement": 7247,
      "devrions": 7248,
      "radio": 7249,
      "territoire": 7250,
      "pil": 7251,
      "##issez": 7252,
      "paiement": 7253,
      "chr": 7254,
      "pauvreté": 7255,
      "ouverte": 7256,
      "forces": 7257,
      "belle": 7258,
      "taille": 7259,
      "##érences": 7260,
      "avantages": 7261,
      "room": 7262,
      "lecture": 7263,
      "diver": 7264,
      "specta": 7265,
      "agir": 7266,
      "1er": 7267,
      "méthode": 7268,
      "##endra": 7269,
      "windows": 7270,
      "##tine": 7271,
      "2002": 7272,
      "chers": 7273,
      "sug": 7274,
      "rele": 7275,
      "interp": 7276,
      "allemagne": 7277,
      "##stra": 7278,
      "distin": 7279,
      "types": 7280,
      "luxe": 7281,
      "préser": 7282,
      "2001": 7283,
      "frontières": 7284,
      "##ote": 7285,
      "déclaré": 7286,
      "##bur": 7287,
      "##cts": 7288,
      "arrivée": 7289,
      "dan": 7290,
      "condam": 7291,
      "devi": 7292,
      "devenir": 7293,
      "##val": 7294,
      "présenté": 7295,
      "modifier": 7296,
      "imm": 7297,
      "traite": 7298,
      "##mine": 7299,
      "statut": 7300,
      "auxque": 7301,
      "##agement": 7302,
      "##ood": 7303,
      "résid": 7304,
      "bienven": 7305,
      "##ga": 7306,
      "##50": 7307,
      "em": 7308,
      "permettez": 7309,
      "discri": 7310,
      "réserve": 7311,
      "supplémentaires": 7312,
      "certainement": 7313,
      "milieu": 7314,
      "adopté": 7315,
      "##gen": 7316,
      "amis": 7317,
      "ferme": 7318,
      "##gée": 7319,
      "vont": 7320,
      "##més": 7321,
      "##équ": 7322,
      "tourn": 7323,
      "bru": 7324,
      "##chant": 7325,
      "japon": 7326,
      "not": 7327,
      "##iterran": 7328,
      "faud": 7329,
      "##ctement": 7330,
      "jo": 7331,
      "##ctivement": 7332,
      "tor": 7333,
      "république": 7334,
      "langues": 7335,
      "physi": 7336,
      "##usion": 7337,
      "##pens": 7338,
      "utilisés": 7339,
      "solidarité": 7340,
      "##iers": 7341,
      "royaume": 7342,
      "alimentaire": 7343,
      "totalement": 7344,
      "représentants": 7345,
      "demandes": 7346,
      "multip": 7347,
      "second": 7348,
      "ministère": 7349,
      "femme": 7350,
      "##bes": 7351,
      "auto": 7352,
      "lesquelles": 7353,
      "indis": 7354,
      "directeur": 7355,
      "innovation": 7356,
      "court": 7357,
      "fe": 7358,
      "60": 7359,
      "paragraphe": 7360,
      "iss": 7361,
      "liés": 7362,
      "##inement": 7363,
      "voix": 7364,
      "caf": 7365,
      "lumière": 7366,
      "discussion": 7367,
      "vendre": 7368,
      "fonctions": 7369,
      "usage": 7370,
      "acquis": 7371,
      "soumis": 7372,
      "demain": 7373,
      "mat": 7374,
      "investissement": 7375,
      "occup": 7376,
      "étro": 7377,
      "presque": 7378,
      "27": 7379,
      "##nte": 7380,
      "fondamentaux": 7381,
      "hôtels": 7382,
      "internationaux": 7383,
      "##we": 7384,
      "tax": 7385,
      "##ible": 7386,
      "option": 7387,
      "matin": 7388,
      "##èles": 7389,
      "aimer": 7390,
      "judi": 7391,
      "forte": 7392,
      "célè": 7393,
      "##ël": 7394,
      "mètres": 7395,
      "active": 7396,
      "vil": 7397,
      "voil": 7398,
      "##uire": 7399,
      "##h00": 7400,
      "réjou": 7401,
      "diverses": 7402,
      "vin": 7403,
      "savons": 7404,
      "##).": 7405,
      "violence": 7406,
      "##za": 7407,
      "voter": 7408,
      "..": 7409,
      "matériel": 7410,
      "nouvel": 7411,
      "réglementation": 7412,
      "employés": 7413,
      "choisir": 7414,
      "campagne": 7415,
      "entrep": 7416,
      "privé": 7417,
      "##urez": 7418,
      "sociales": 7419,
      "parvenir": 7420,
      "os": 7421,
      "configur": 7422,
      "chauff": 7423,
      "gare": 7424,
      "lut": 7425,
      "##iner": 7426,
      "##issons": 7427,
      "université": 7428,
      "combat": 7429,
      "note": 7430,
      "##cra": 7431,
      "nuclé": 7432,
      "accéder": 7433,
      "dossier": 7434,
      "personnels": 7435,
      "##lie": 7436,
      "net": 7437,
      "investissements": 7438,
      "support": 7439,
      "élections": 7440,
      "##wa": 7441,
      "##ack": 7442,
      "opérations": 7443,
      "applications": 7444,
      "parking": 7445,
      "police": 7446,
      "ancien": 7447,
      "suppri": 7448,
      "âge": 7449,
      "dollars": 7450,
      "dois": 7451,
      "mér": 7452,
      "conseils": 7453,
      "##30": 7454,
      "##ultés": 7455,
      "##orde": 7456,
      "sépar": 7457,
      "mises": 7458,
      "détent": 7459,
      "couv": 7460,
      "##cht": 7461,
      "coeur": 7462,
      "##érée": 7463,
      "cru": 7464,
      "bain": 7465,
      "mandat": 7466,
      "dimin": 7467,
      "##chent": 7468,
      "limite": 7469,
      "échelle": 7470,
      "##iez": 7471,
      "formes": 7472,
      "##onner": 7473,
      "her": 7474,
      "canadiens": 7475,
      "civile": 7476,
      "médias": 7477,
      "##lève": 7478,
      "proposé": 7479,
      "veiller": 7480,
      "poi": 7481,
      "##rente": 7482,
      "élég": 7483,
      "don": 7484,
      "tourisme": 7485,
      "##tier": 7486,
      "attra": 7487,
      "priorité": 7488,
      "utilisant": 7489,
      "actuel": 7490,
      "dérou": 7491,
      "connaître": 7492,
      "école": 7493,
      "affaire": 7494,
      "muni": 7495,
      "classe": 7496,
      "semaines": 7497,
      "##chés": 7498,
      "concl": 7499,
      "milliards": 7500,
      "outil": 7501,
      "assistance": 7502,
      "amérique": 7503,
      "##itée": 7504,
      "enregistr": 7505,
      "197": 7506,
      "villes": 7507,
      "auteur": 7508,
      "den": 7509,
      "exprimer": 7510,
      "##ws": 7511,
      "mém": 7512,
      "budgétaire": 7513,
      "agréable": 7514,
      "planifi": 7515,
      "constituent": 7516,
      "possède": 7517,
      "##itez": 7518,
      "cul": 7519,
      "adéqu": 7520,
      "##lées": 7521,
      "cra": 7522,
      "##tations": 7523,
      "surveill": 7524,
      "rempla": 7525,
      "##ennent": 7526,
      "##--------": 7527,
      "##meurs": 7528,
      "réseaux": 7529,
      "tre": 7530,
      "##igh": 7531,
      "poste": 7532,
      "dég": 7533,
      "##to": 7534,
      "##cin": 7535,
      "red": 7536,
      "réunions": 7537,
      "bil": 7538,
      "vision": 7539,
      "formulaire": 7540,
      "restaurants": 7541,
      "##oss": 7542,
      "premières": 7543,
      "fév": 7544,
      "##tell": 7545,
      "pourtant": 7546,
      "##agner": 7547,
      "comptes": 7548,
      "by": 7549,
      "compagnie": 7550,
      "ps": 7551,
      "log": 7552,
      "##lés": 7553,
      "méditerran": 7554,
      "mini": 7555,
      "décidé": 7556,
      "vertu": 7557,
      "##ciels": 7558,
      "presse": 7559,
      "pression": 7560,
      "installations": 7561,
      "réellement": 7562,
      "##aliser": 7563,
      "cartes": 7564,
      "envoyer": 7565,
      "consommation": 7566,
      "privil": 7567,
      "sources": 7568,
      "détermin": 7569,
      "changer": 7570,
      "calme": 7571,
      "février": 7572,
      "domm": 7573,
      "rappeler": 7574,
      "stri": 7575,
      "italie": 7576,
      "boo": 7577,
      "espagne": 7578,
      "mari": 7579,
      "class": 7580,
      "approuv": 7581,
      "énergétique": 7582,
      "enseignement": 7583,
      "##oncer": 7584,
      "évidemment": 7585,
      "pourront": 7586,
      "syn": 7587,
      "trouvent": 7588,
      "élevé": 7589,
      "cla": 7590,
      "flex": 7591,
      "conception": 7592,
      "entend": 7593,
      "##miques": 7594,
      "##gées": 7595,
      "##oso": 7596,
      "500": 7597,
      "coût": 7598,
      "dirige": 7599,
      "répond": 7600,
      "tribun": 7601,
      "festiv": 7602,
      "##seur": 7603,
      "1999": 7604,
      "oeuvre": 7605,
      "oui": 7606,
      "yeux": 7607,
      "ami": 7608,
      "médica": 7609,
      "plate": 7610,
      "difficultés": 7611,
      "asi": 7612,
      "##aison": 7613,
      "détails": 7614,
      "##ira": 7615,
      "effectuer": 7616,
      "voilà": 7617,
      "vise": 7618,
      "ga": 7619,
      "réalisation": 7620,
      "vaste": 7621,
      "fou": 7622,
      "##dite": 7623,
      "émissions": 7624,
      "##ho": 7625,
      "église": 7626,
      "pleinement": 7627,
      "cab": 7628,
      "forum": 7629,
      "connexion": 7630,
      "##lisation": 7631,
      "bro": 7632,
      "appuy": 7633,
      "##riel": 7634,
      "##atement": 7635,
      "mail": 7636,
      "absolument": 7637,
      "découver": 7638,
      "31": 7639,
      "utilisez": 7640,
      "communautaires": 7641,
      "##itant": 7642,
      "puissent": 7643,
      "opinion": 7644,
      "bains": 7645,
      "interpré": 7646,
      "sort": 7647,
      "devoir": 7648,
      "blanc": 7649,
      "##vées": 7650,
      "publiques": 7651,
      "défis": 7652,
      "##ague": 7653,
      "résoudre": 7654,
      "défi": 7655,
      "île": 7656,
      "augmenter": 7657,
      "consiste": 7658,
      "ba": 7659,
      "prim": 7660,
      "étape": 7661,
      "26": 7662,
      "privée": 7663,
      "exige": 7664,
      "##ctifs": 7665,
      "priorités": 7666,
      "##ini": 7667,
      "familles": 7668,
      "offrent": 7669,
      "méthodes": 7670,
      "indispens": 7671,
      "##no": 7672,
      "marchand": 7673,
      "statis": 7674,
      "sortie": 7675,
      "simpli": 7676,
      "musée": 7677,
      "##die": 7678,
      "##liers": 7679,
      "touris": 7680,
      "##dité": 7681,
      "28": 7682,
      "consulter": 7683,
      "exis": 7684,
      "concr": 7685,
      "are": 7686,
      "hos": 7687,
      "dépla": 7688,
      "premiers": 7689,
      "réservation": 7690,
      "terrorisme": 7691,
      "##ek": 7692,
      "##ologiques": 7693,
      "vivre": 7694,
      "##rup": 7695,
      "collègue": 7696,
      "avanc": 7697,
      "##alistes": 7698,
      "maintenir": 7699,
      "servir": 7700,
      "généralement": 7701,
      "précisément": 7702,
      "symp": 7703,
      "exécution": 7704,
      "atmos": 7705,
      "occu": 7706,
      "##ouse": 7707,
      "proposer": 7708,
      "bonnes": 7709,
      "inclu": 7710,
      "##mc": 7711,
      "immigration": 7712,
      "centres": 7713,
      "véhicules": 7714,
      "évo": 7715,
      "##oie": 7716,
      "étudiants": 7717,
      "lire": 7718,
      "##aliste": 7719,
      "laisser": 7720,
      "##ju": 7721,
      ".,": 7722,
      "achat": 7723,
      "reti": 7724,
      "impos": 7725,
      "##crit": 7726,
      "atmosph": 7727,
      "héber": 7728,
      "emplacement": 7729,
      "##dia": 7730,
      "communes": 7731,
      "##ressi": 7732,
      "gratuit": 7733,
      "serveur": 7734,
      "##ice": 7735,
      "candidats": 7736,
      "souten": 7737,
      "pen": 7738,
      "coordination": 7739,
      "##agers": 7740,
      "##lam": 7741,
      "adress": 7742,
      "voulez": 7743,
      "-,": 7744,
      "créé": 7745,
      "prévention": 7746,
      "##nant": 7747,
      "parfaitement": 7748,
      "afri": 7749,
      "div": 7750,
      "dipl": 7751,
      "idées": 7752,
      "capitale": 7753,
      "##ares": 7754,
      "cohésion": 7755,
      "anne": 7756,
      "partout": 7757,
      "sk": 7758,
      "responsabil": 7759,
      "##anges": 7760,
      "delà": 7761,
      "logiciels": 7762,
      "##usse": 7763,
      "##gique": 7764,
      "complet": 7765,
      "participants": 7766,
      "##moine": 7767,
      "rencontre": 7768,
      "##ty": 7769,
      "voiture": 7770,
      "maximum": 7771,
      "utile": 7772,
      "utilise": 7773,
      "fau": 7774,
      "absence": 7775,
      "##uler": 7776,
      "confront": 7777,
      "film": 7778,
      "christ": 7779,
      "patrimoine": 7780,
      "enquête": 7781,
      "##térieure": 7782,
      "##he": 7783,
      "garde": 7784,
      "climatique": 7785,
      "enregistrement": 7786,
      "##ars": 7787,
      "communautés": 7788,
      "##isant": 7789,
      "espè": 7790,
      "exac": 7791,
      "armes": 7792,
      "analys": 7793,
      "auber": 7794,
      "pla": 7795,
      "biais": 7796,
      "session": 7797,
      "poursuivre": 7798,
      "##tic": 7799,
      "chance": 7800,
      "ot": 7801,
      "revenu": 7802,
      "connu": 7803,
      "appréci": 7804,
      "amén": 7805,
      "guide": 7806,
      "bénéficier": 7807,
      "contrat": 7808,
      "immobilier": 7809,
      "tête": 7810,
      "experts": 7811,
      "##ériques": 7812,
      "hors": 7813,
      "féliciter": 7814,
      "couleurs": 7815,
      "portug": 7816,
      "protoc": 7817,
      "reprodu": 7818,
      "local": 7819,
      "##ara": 7820,
      "##tence": 7821,
      "vide": 7822,
      "particulière": 7823,
      "##fon": 7824,
      "impri": 7825,
      "##istan": 7826,
      "export": 7827,
      "format": 7828,
      "marche": 7829,
      "tv": 7830,
      "##zz": 7831,
      "sport": 7832,
      "ja": 7833,
      "festival": 7834,
      "paquet": 7835,
      "méde": 7836,
      "blan": 7837,
      "mouvement": 7838,
      "circulation": 7839,
      "meilleures": 7840,
      "aspect": 7841,
      "intégra": 7842,
      "parle": 7843,
      "options": 7844,
      "##lage": 7845,
      "jean": 7846,
      "kil": 7847,
      "humaine": 7848,
      "couleur": 7849,
      "80": 7850,
      "pous": 7851,
      "locaux": 7852,
      "suisse": 7853,
      "arriver": 7854,
      "locales": 7855,
      "surveillance": 7856,
      "param": 7857,
      "immédiatement": 7858,
      "catégorie": 7859,
      "##dement": 7860,
      "arrê": 7861,
      "mou": 7862,
      "##...": 7863,
      "##iver": 7864,
      "clé": 7865,
      "entrer": 7866,
      "principale": 7867,
      "réussi": 7868,
      "##oindre": 7869,
      "##diction": 7870,
      "procès": 7871,
      "ao": 7872,
      "autorité": 7873,
      "##andis": 7874,
      "##nts": 7875,
      "graph": 7876,
      "principalement": 7877,
      "liées": 7878,
      "riches": 7879,
      "faible": 7880,
      "pou": 7881,
      "remb": 7882,
      "cohé": 7883,
      "témoi": 7884,
      "pierre": 7885,
      "combin": 7886,
      "climatis": 7887,
      "sauve": 7888,
      "située": 7889,
      "traiter": 7890,
      "pros": 7891,
      "##cter": 7892,
      "encourager": 7893,
      "bibli": 7894,
      "thème": 7895,
      "##dra": 7896,
      "relation": 7897,
      "imag": 7898,
      "##ements": 7899,
      "##landais": 7900,
      "envers": 7901,
      "commence": 7902,
      "discussions": 7903,
      "observ": 7904,
      "pat": 7905,
      "cre": 7906,
      "##anie": 7907,
      "##tivité": 7908,
      "##oise": 7909,
      "tab": 7910,
      "manifes": 7911,
      "devra": 7912,
      "équilibre": 7913,
      "##chets": 7914,
      "##dits": 7915,
      "prochain": 7916,
      "commercial": 7917,
      "##ènes": 7918,
      "modification": 7919,
      "connaissances": 7920,
      "fera": 7921,
      "franc": 7922,
      "##orté": 7923,
      "déterminer": 7924,
      "##uti": 7925,
      "capital": 7926,
      "quelles": 7927,
      "heureux": 7928,
      "exposition": 7929,
      "pales": 7930,
      "##ètes": 7931,
      "chô": 7932,
      "droite": 7933,
      "sole": 7934,
      "cata": 7935,
      "##alent": 7936,
      "chré": 7937,
      "supérieur": 7938,
      "altern": 7939,
      "##tini": 7940,
      "évident": 7941,
      "fle": 7942,
      "dyna": 7943,
      "représentant": 7944,
      "##aï": 7945,
      "justifi": 7946,
      "##ary": 7947,
      "##çons": 7948,
      "expression": 7949,
      "visiter": 7950,
      "##isent": 7951,
      "very": 7952,
      "côte": 7953,
      "##erse": 7954,
      "##çant": 7955,
      "modifications": 7956,
      "urb": 7957,
      "ministres": 7958,
      "conflit": 7959,
      "milliers": 7960,
      "communiquer": 7961,
      "impossi": 7962,
      "nour": 7963,
      "erreur": 7964,
      "##ographique": 7965,
      "légi": 7966,
      "##cat": 7967,
      "##isé": 7968,
      "magas": 7969,
      "concept": 7970,
      "renforcement": 7971,
      "élaboration": 7972,
      "ira": 7973,
      "commerciales": 7974,
      "déclarations": 7975,
      "lac": 7976,
      "amour": 7977,
      "##caine": 7978,
      "vali": 7979,
      "prêt": 7980,
      "manifest": 7981,
      "description": 7982,
      "appartements": 7983,
      "magnifique": 7984,
      "faciliter": 7985,
      "consi": 7986,
      "votes": 7987,
      "souhaiter": 7988,
      "examiner": 7989,
      "##por": 7990,
      "châte": 7991,
      "plans": 7992,
      "fen": 7993,
      "ru": 7994,
      "tom": 7995,
      "réalisé": 7996,
      "considération": 7997,
      "tandis": 7998,
      "hier": 7999,
      "##seurs": 8000,
      "cong": 8001,
      "présentation": 8002,
      "biens": 8003,
      "réuss": 8004,
      "tarif": 8005,
      "##ani": 8006,
      "arrêt": 8007,
      "this": 8008,
      "partis": 8009,
      "##iennent": 8010,
      "responsabilités": 8011,
      "##rite": 8012,
      "obligations": 8013,
      "ras": 8014,
      "rénov": 8015,
      "paral": 8016,
      "cd": 8017,
      "admis": 8018,
      "allemand": 8019,
      "mobil": 8020,
      "veux": 8021,
      "avions": 8022,
      "sujets": 8023,
      "##oniques": 8024,
      "considère": 8025,
      "##vel": 8026,
      "lieux": 8027,
      "soy": 8028,
      "disque": 8029,
      "principales": 8030,
      "29": 8031,
      "délai": 8032,
      "fondation": 8033,
      "##!!": 8034,
      "vérifier": 8035,
      "réformes": 8036,
      "handi": 8037,
      "##cées": 8038,
      "bour": 8039,
      "inscri": 8040,
      "etats": 8041,
      "##bian": 8042,
      "empêcher": 8043,
      "van": 8044,
      "maladie": 8045,
      "##ève": 8046,
      "gi": 8047,
      "payer": 8048,
      "britannique": 8049,
      "faits": 8050,
      "veulent": 8051,
      "##pé": 8052,
      "août": 8053,
      "modèles": 8054,
      "canadien": 8055,
      "automo": 8056,
      "révision": 8057,
      "##uss": 8058,
      "comprennent": 8059,
      "canadienne": 8060,
      "##ties": 8061,
      "rati": 8062,
      "##iels": 8063,
      "calcul": 8064,
      "pron": 8065,
      "transmis": 8066,
      "menu": 8067,
      "vites": 8068,
      "recours": 8069,
      "##ogne": 8070,
      "préal": 8071,
      "24h": 8072,
      "ara": 8073,
      "##stroph": 8074,
      "sait": 8075,
      "actes": 8076,
      "allons": 8077,
      "rent": 8078,
      "confortable": 8079,
      "##bé": 8080,
      "ancienne": 8081,
      "##lité": 8082,
      "annonce": 8083,
      "recue": 8084,
      "micr": 8085,
      "française": 8086,
      "célèbre": 8087,
      "mass": 8088,
      "mener": 8089,
      "##tait": 8090,
      "##rét": 8091,
      "événement": 8092,
      "personnelles": 8093,
      "revenus": 8094,
      "professionnelle": 8095,
      "chaîne": 8096,
      "visiteurs": 8097,
      "saison": 8098,
      "gratuitement": 8099,
      "séance": 8100,
      "complexe": 8101,
      "caractéristiques": 8102,
      "téléc": 8103,
      "toi": 8104,
      "secrét": 8105,
      "accident": 8106,
      "spor": 8107,
      "ste": 8108,
      "conven": 8109,
      "définition": 8110,
      "soleil": 8111,
      "caus": 8112,
      "modernes": 8113,
      "scène": 8114,
      "maladies": 8115,
      "##uté": 8116,
      "avan": 8117,
      "reconnaissance": 8118,
      "bag": 8119,
      "villa": 8120,
      "symb": 8121,
      "##den": 8122,
      "restri": 8123,
      "devient": 8124,
      "répar": 8125,
      "apport": 8126,
      "satell": 8127,
      "aliments": 8128,
      "montrer": 8129,
      "ign": 8130,
      "parents": 8131,
      "recommandations": 8132,
      "bate": 8133,
      "##esti": 8134,
      "aides": 8135,
      "raisonn": 8136,
      "producteurs": 8137,
      "central": 8138,
      "##nis": 8139,
      "volu": 8140,
      "##rog": 8141,
      "mobilité": 8142,
      "auquel": 8143,
      "applic": 8144,
      "catastroph": 8145,
      "somme": 8146,
      "300": 8147,
      "appareil": 8148,
      "rej": 8149,
      "mariti": 8150,
      "étrangères": 8151,
      "debian": 8152,
      "conséquence": 8153,
      "fisc": 8154,
      "##ctivité": 8155,
      "occident": 8156,
      "examin": 8157,
      "judici": 8158,
      "attribu": 8159,
      "final": 8160,
      "##matique": 8161,
      "faite": 8162,
      "confident": 8163,
      "supplémentaire": 8164,
      "gri": 8165,
      "électri": 8166,
      "étranger": 8167,
      "deuxièmement": 8168,
      "rendu": 8169,
      "##roy": 8170,
      "juridiques": 8171,
      "nett": 8172,
      "populaire": 8173,
      "artistes": 8174,
      "repas": 8175,
      "contemp": 8176,
      "ambiance": 8177,
      "complément": 8178,
      "entour": 8179,
      "##issage": 8180,
      "##lusions": 8181,
      "##stac": 8182,
      "suffisamment": 8183,
      "honor": 8184,
      "café": 8185,
      "##ibilité": 8186,
      "##ader": 8187,
      "hong": 8188,
      "situe": 8189,
      "##cus": 8190,
      "##lits": 8191,
      "avance": 8192,
      "prévu": 8193,
      "médicaments": 8194,
      "préparation": 8195,
      "##ling": 8196,
      "acheter": 8197,
      "conclusion": 8198,
      "dimension": 8199,
      "terres": 8200,
      "réfu": 8201,
      "illég": 8202,
      "officie": 8203,
      "appui": 8204,
      "90": 8205,
      "##vo": 8206,
      "aient": 8207,
      "jeune": 8208,
      "finalement": 8209,
      "chant": 8210,
      "uvre": 8211,
      "recon": 8212,
      "quels": 8213,
      "automatiquement": 8214,
      "sept": 8215,
      "théâ": 8216,
      "peint": 8217,
      "standard": 8218,
      "discrimination": 8219,
      "corri": 8220,
      "diversité": 8221,
      "wor": 8222,
      "défaut": 8223,
      "probablement": 8224,
      "naturel": 8225,
      "##ores": 8226,
      "transfert": 8227,
      "radi": 8228,
      "instant": 8229,
      "##mage": 8230,
      "eaux": 8231,
      "mas": 8232,
      "seconde": 8233,
      "##hn": 8234,
      "scientifiques": 8235,
      "comporte": 8236,
      "attendre": 8237,
      "##uxelles": 8238,
      "##chement": 8239,
      "suffit": 8240,
      "##app": 8241,
      "douche": 8242,
      "perspectives": 8243,
      "bruxelles": 8244,
      "siège": 8245,
      "compétitivité": 8246,
      "##osés": 8247,
      "auront": 8248,
      "##rich": 8249,
      "##tié": 8250,
      "accent": 8251,
      "##ng": 8252,
      "agricul": 8253,
      "produire": 8254,
      "maî": 8255,
      "parven": 8256,
      "buff": 8257,
      "province": 8258,
      "dén": 8259,
      "pét": 8260,
      "totale": 8261,
      "ving": 8262,
      "irlande": 8263,
      "chiff": 8264,
      "gérer": 8265,
      "quit": 8266,
      "amp": 8267,
      "##ortement": 8268,
      "voul": 8269,
      "étend": 8270,
      "breve": 8271,
      "##ulaire": 8272,
      "papi": 8273,
      "obstac": 8274,
      "obligation": 8275,
      "tch": 8276,
      "that": 8277,
      "conjoint": 8278,
      "militaire": 8279,
      "##ctor": 8280,
      "##mant": 8281,
      "##ker": 8282,
      "contacter": 8283,
      "naturellement": 8284,
      "##réh": 8285,
      "handicap": 8286,
      "phase": 8287,
      "existence": 8288,
      "lutter": 8289,
      "utilisée": 8290,
      "explor": 8291,
      "peuples": 8292,
      "déchets": 8293,
      "pouvant": 8294,
      "savez": 8295,
      "efficaces": 8296,
      "passion": 8297,
      "grave": 8298,
      "invite": 8299,
      "simil": 8300,
      "climat": 8301,
      "livrais": 8302,
      "album": 8303,
      "commerciaux": 8304,
      "obtenu": 8305,
      "##cepti": 8306,
      "partager": 8307,
      "moteur": 8308,
      "exten": 8309,
      "pc": 8310,
      "équipement": 8311,
      "slo": 8312,
      "unité": 8313,
      "ouvrir": 8314,
      "continent": 8315,
      "arrive": 8316,
      "joue": 8317,
      "traités": 8318,
      "porter": 8319,
      "prévoit": 8320,
      "nettoy": 8321,
      "minimum": 8322,
      "tâche": 8323,
      "##vage": 8324,
      "agricoles": 8325,
      "##mées": 8326,
      "##las": 8327,
      "signific": 8328,
      "distance": 8329,
      "##alisme": 8330,
      "fabrication": 8331,
      "licence": 8332,
      "##tiss": 8333,
      "##née": 8334,
      "monétaire": 8335,
      "scientifique": 8336,
      "mémoire": 8337,
      "profit": 8338,
      "conscience": 8339,
      "##ades": 8340,
      "eg": 8341,
      "tirer": 8342,
      "biblioth": 8343,
      "réfugi": 8344,
      "golf": 8345,
      "stratégique": 8346,
      "introduction": 8347,
      "##bo": 8348,
      "graves": 8349,
      "concours": 8350,
      "pleine": 8351,
      "consultation": 8352,
      "##èse": 8353,
      "reje": 8354,
      "sauf": 8355,
      "fournisseurs": 8356,
      "complé": 8357,
      "uk": 8358,
      "mauvais": 8359,
      "délég": 8360,
      "évaluer": 8361,
      "auth": 8362,
      "##ries": 8363,
      "insta": 8364,
      "poser": 8365,
      "35": 8366,
      "fruits": 8367,
      "accorder": 8368,
      "poids": 8369,
      "coffre": 8370,
      "remise": 8371,
      "parlementaire": 8372,
      "compétence": 8373,
      "tient": 8374,
      "lond": 8375,
      "professionnel": 8376,
      "israël": 8377,
      "acteurs": 8378,
      "réel": 8379,
      "profonde": 8380,
      "élè": 8381,
      "70": 8382,
      "engagements": 8383,
      "##mise": 8384,
      "dv": 8385,
      "habitants": 8386,
      "protocole": 8387,
      "marques": 8388,
      "approvision": 8389,
      "##veux": 8390,
      "##itations": 8391,
      "illu": 8392,
      "exper": 8393,
      "résident": 8394,
      "intel": 8395,
      "sûre": 8396,
      "chômage": 8397,
      "36": 8398,
      "effectivement": 8399,
      "étique": 8400,
      "##andonn": 8401,
      "indispensable": 8402,
      "##ony": 8403,
      "ment": 8404,
      "anciens": 8405,
      "mut": 8406,
      "compter": 8407,
      "soule": 8408,
      "édition": 8409,
      "##yth": 8410,
      "lettre": 8411,
      "##ismes": 8412,
      "lun": 8413,
      "entendre": 8414,
      "sw": 8415,
      "organisme": 8416,
      "utilisées": 8417,
      "meu": 8418,
      "196": 8419,
      "capac": 8420,
      "moyenne": 8421,
      "organiser": 8422,
      "futur": 8423,
      "alimentation": 8424,
      "révé": 8425,
      "conclusions": 8426,
      "##fast": 8427,
      "kilom": 8428,
      "fumeurs": 8429,
      "espérons": 8430,
      "senti": 8431,
      "géné": 8432,
      "boî": 8433,
      "mad": 8434,
      "perte": 8435,
      "##érées": 8436,
      "circon": 8437,
      "vert": 8438,
      "largement": 8439,
      "indiqué": 8440,
      "fonctionne": 8441,
      "booking": 8442,
      "portant": 8443,
      "atmosphère": 8444,
      "##fa": 8445,
      "offrant": 8446,
      "accompagn": 8447,
      "test": 8448,
      "##tiennent": 8449,
      "résidence": 8450,
      "prati": 8451,
      "offres": 8452,
      "adul": 8453,
      "architecture": 8454,
      "##ctes": 8455,
      "banc": 8456,
      "suivante": 8457,
      "père": 8458,
      "ate": 8459,
      "autorisation": 8460,
      "##wn": 8461,
      "opti": 8462,
      "ong": 8463,
      "publication": 8464,
      "bai": 8465,
      "apprent": 8466,
      "actu": 8467,
      "asc": 8468,
      "hiver": 8469,
      "puissance": 8470,
      "potentiel": 8471,
      "bienvenue": 8472,
      "directives": 8473,
      "agriculteurs": 8474,
      "tranqu": 8475,
      "midi": 8476,
      "inn": 8477,
      "limites": 8478,
      "##lation": 8479,
      "dispar": 8480,
      "bâtiment": 8481,
      "accueillir": 8482,
      "compati": 8483,
      "définir": 8484,
      "##veurs": 8485,
      "alimentaires": 8486,
      "##less": 8487,
      "commerciale": 8488,
      "tort": 8489,
      "vérit": 8490,
      "prêts": 8491,
      "##uff": 8492,
      "encourage": 8493,
      "##bit": 8494,
      "##énie": 8495,
      "commencé": 8496,
      "premièrement": 8497,
      "réflex": 8498,
      "constater": 8499,
      "##actions": 8500,
      "vice": 8501,
      "circonst": 8502,
      "ax": 8503,
      "paci": 8504,
      "inquié": 8505,
      "vent": 8506,
      "modu": 8507,
      "sérieux": 8508,
      "représentent": 8509,
      "##bal": 8510,
      "courant": 8511,
      "global": 8512,
      "pauvres": 8513,
      "suscepti": 8514,
      "clientèle": 8515,
      "messages": 8516,
      "rouge": 8517,
      "mur": 8518,
      "cale": 8519,
      "complètement": 8520,
      "candid": 8521,
      "##cté": 8522,
      "physique": 8523,
      "##atoires": 8524,
      "conçu": 8525,
      "régulièrement": 8526,
      "seuls": 8527,
      "##ark": 8528,
      "##ml": 8529,
      "publié": 8530,
      "autonom": 8531,
      "##ja": 8532,
      "objets": 8533,
      "apprendre": 8534,
      "pertin": 8535,
      "suites": 8536,
      "écri": 8537,
      "subs": 8538,
      "chaleur": 8539,
      "recherches": 8540,
      "séjourner": 8541,
      "##dation": 8542,
      "consent": 8543,
      "identité": 8544,
      "conduite": 8545,
      "quantité": 8546,
      "rê": 8547,
      "gard": 8548,
      "américain": 8549,
      "critique": 8550,
      "disposent": 8551,
      "photograph": 8552,
      "accroître": 8553,
      "procéder": 8554,
      "fonctionn": 8555,
      "économies": 8556,
      "impossible": 8557,
      "##iné": 8558,
      "ip": 8559,
      "excellente": 8560,
      "##issements": 8561,
      "##ora": 8562,
      "interne": 8563,
      "numérique": 8564,
      "vitesse": 8565,
      "félicite": 8566,
      "clés": 8567,
      "repos": 8568,
      "château": 8569,
      "personnalis": 8570,
      "mél": 8571,
      "abou": 8572,
      "##nie": 8573,
      "discuter": 8574,
      "aimerais": 8575,
      "montagne": 8576,
      "palestini": 8577,
      "touche": 8578,
      "ski": 8579,
      "##oris": 8580,
      "trafic": 8581,
      "populations": 8582,
      "contempor": 8583,
      "aborder": 8584,
      "préparer": 8585,
      "planification": 8586,
      "vite": 8587,
      "ec": 8588,
      "##ung": 8589,
      "chapit": 8590,
      "##inaire": 8591,
      "##ell": 8592,
      "##tenus": 8593,
      "joueurs": 8594,
      "##uré": 8595,
      "deh": 8596,
      "micro": 8597,
      "substances": 8598,
      "pétro": 8599,
      "relatif": 8600,
      "##lables": 8601,
      "##onses": 8602,
      "mainten": 8603,
      "assure": 8604,
      "définiti": 8605,
      "nice": 8606,
      "positive": 8607,
      "1998": 8608,
      "télécharger": 8609,
      "bul": 8610,
      "oublier": 8611,
      "installer": 8612,
      "reconnaître": 8613,
      "dr": 8614,
      "##ielle": 8615,
      "facteurs": 8616,
      "réponses": 8617,
      "règlements": 8618,
      "arts": 8619,
      "textes": 8620,
      "##nées": 8621,
      "exter": 8622,
      "]]": 8623,
      "collection": 8624,
      "capacités": 8625,
      "soup": 8626,
      "##ètre": 8627,
      "sert": 8628,
      "##ash": 8629,
      "structures": 8630,
      "fils": 8631,
      "phil": 8632,
      "démon": 8633,
      "##riez": 8634,
      "fourni": 8635,
      "inclus": 8636,
      "aurez": 8637,
      "front": 8638,
      "écoles": 8639,
      "conclure": 8640,
      "équiv": 8641,
      "statistiques": 8642,
      "conflits": 8643,
      "garder": 8644,
      "accessible": 8645,
      "privilégi": 8646,
      "##cial": 8647,
      "compétent": 8648,
      "fri": 8649,
      "combien": 8650,
      "trouvé": 8651,
      "vul": 8652,
      "choisi": 8653,
      "modern": 8654,
      "01": 8655,
      "préoccupations": 8656,
      "lour": 8657,
      "coordonn": 8658,
      "lancer": 8659,
      "unes": 8660,
      "rot": 8661,
      "suc": 8662,
      "positif": 8663,
      "pouvoirs": 8664,
      "chin": 8665,
      "véhicule": 8666,
      "cheveux": 8667,
      "avantage": 8668,
      "hyp": 8669,
      "rig": 8670,
      "différence": 8671,
      "ke": 8672,
      "##ip": 8673,
      "gagn": 8674,
      "##euse": 8675,
      "applique": 8676,
      "argu": 8677,
      "opposition": 8678,
      "pollu": 8679,
      "venez": 8680,
      "appareils": 8681,
      "échanges": 8682,
      "##loy": 8683,
      "##ection": 8684,
      "él": 8685,
      "content": 8686,
      "partenaire": 8687,
      "dehors": 8688,
      "correctement": 8689,
      "star": 8690,
      "##lt": 8691,
      "##gner": 8692,
      "influence": 8693,
      "pose": 8694,
      "voitures": 8695,
      "up": 8696,
      "ray": 8697,
      "ther": 8698,
      "##inte": 8699,
      "##cy": 8700,
      "spécial": 8701,
      "globale": 8702,
      "informer": 8703,
      "rela": 8704,
      "tarifs": 8705,
      "perspective": 8706,
      "municip": 8707,
      "rub": 8708,
      "démont": 8709,
      "intermédi": 8710,
      "##être": 8711,
      "##car": 8712,
      "attitude": 8713,
      "plats": 8714,
      "york": 8715,
      "cult": 8716,
      "générales": 8717,
      "indique": 8718,
      "play": 8719,
      "dépar": 8720,
      "nucléaire": 8721,
      "crédits": 8722,
      "##ura": 8723,
      "barce": 8724,
      "##umer": 8725,
      "##agnol": 8726,
      "effort": 8727,
      "pont": 8728,
      "machine": 8729,
      "bran": 8730,
      "relativement": 8731,
      "##manie": 8732,
      "disponibilité": 8733,
      "iran": 8734,
      "dynamique": 8735,
      "lé": 8736,
      "provo": 8737,
      "extérieure": 8738,
      "favorable": 8739,
      "auxquels": 8740,
      "célé": 8741,
      "situations": 8742,
      "##liation": 8743,
      "##chir": 8744,
      "linux": 8745,
      "culturel": 8746,
      "ly": 8747,
      "provenant": 8748,
      "régional": 8749,
      "access": 8750,
      "crée": 8751,
      "##isson": 8752,
      "réparti": 8753,
      "livraison": 8754,
      "stim": 8755,
      "relatifs": 8756,
      "délais": 8757,
      "libertés": 8758,
      "mu": 8759,
      "beauté": 8760,
      "congrès": 8761,
      "satellite": 8762,
      "hés": 8763,
      "riche": 8764,
      "gagner": 8765,
      "scol": 8766,
      "asile": 8767,
      "livres": 8768,
      "maintien": 8769,
      "directri": 8770,
      "diffusion": 8771,
      "office": 8772,
      "rome": 8773,
      "audi": 8774,
      "limiter": 8775,
      "rivi": 8776,
      "##port": 8777,
      "buffet": 8778,
      "##odi": 8779,
      "disposer": 8780,
      "):": 8781,
      "sm": 8782,
      "sang": 8783,
      "vall": 8784,
      "faisons": 8785,
      "##issante": 8786,
      "##ppe": 8787,
      "bé": 8788,
      "viv": 8789,
      "matières": 8790,
      "estim": 8791,
      "ukra": 8792,
      "impôt": 8793,
      "hébergement": 8794,
      "##),": 8795,
      "voyageurs": 8796,
      "prestations": 8797,
      "dvd": 8798,
      "régionale": 8799,
      "chacune": 8800,
      "croy": 8801,
      "htt": 8802,
      "ben": 8803,
      "espèces": 8804,
      "32": 8805,
      "##forme": 8806,
      "45": 8807,
      "seraient": 8808,
      "##andes": 8809,
      "espagnol": 8810,
      "chefs": 8811,
      "bouton": 8812,
      "tribunal": 8813,
      "monn": 8814,
      "étrangère": 8815,
      "agents": 8816,
      "passage": 8817,
      "##cés": 8818,
      "communications": 8819,
      "fondée": 8820,
      "lits": 8821,
      "optimis": 8822,
      "inscrit": 8823,
      "humain": 8824,
      "universe": 8825,
      "palais": 8826,
      "devront": 8827,
      "interven": 8828,
      "barcelon": 8829,
      "az": 8830,
      "naturelles": 8831,
      "compag": 8832,
      "menace": 8833,
      "ton": 8834,
      "aqu": 8835,
      "souligné": 8836,
      "maisons": 8837,
      "infrastructures": 8838,
      "apprentissage": 8839,
      "particuliers": 8840,
      "surface": 8841,
      "parallè": 8842,
      "##bourg": 8843,
      "adoptée": 8844,
      "équilib": 8845,
      "réfugiés": 8846,
      "débats": 8847,
      "portée": 8848,
      "mains": 8849,
      "##ciens": 8850,
      "performance": 8851,
      "##ón": 8852,
      "##esse": 8853,
      "calend": 8854,
      "espoir": 8855,
      "course": 8856,
      "retraite": 8857,
      "##ba": 8858,
      "##ège": 8859,
      "humaines": 8860,
      "pensons": 8861,
      "##rid": 8862,
      "asie": 8863,
      "##ama": 8864,
      "##ueux": 8865,
      "possibles": 8866,
      "moitié": 8867,
      "compagnies": 8868,
      "câ": 8869,
      "##lic": 8870,
      "parcours": 8871,
      "configuration": 8872,
      "trait": 8873,
      "inac": 8874,
      "diffus": 8875,
      "élèves": 8876,
      "compréh": 8877,
      "hol": 8878,
      "céléb": 8879,
      "cur": 8880,
      "capable": 8881,
      "##déré": 8882,
      "accueille": 8883,
      "décider": 8884,
      "tableau": 8885,
      "satisfait": 8886,
      "world": 8887,
      "favoriser": 8888,
      "faibles": 8889,
      "simples": 8890,
      "compli": 8891,
      "publicité": 8892,
      "équipées": 8893,
      "accélé": 8894,
      "vérité": 8895,
      "implique": 8896,
      "vend": 8897,
      "##ks": 8898,
      "intelle": 8899,
      "agences": 8900,
      "chauffage": 8901,
      "diminu": 8902,
      "##cession": 8903,
      "intellect": 8904,
      "##ruption": 8905,
      "charme": 8906,
      "vieux": 8907,
      "regard": 8908,
      "expériences": 8909,
      "penser": 8910,
      "passagers": 8911,
      "destination": 8912,
      "far": 8913,
      "fo": 8914,
      "marchandises": 8915,
      "##atéra": 8916,
      "##èche": 8917,
      "dirigeants": 8918,
      "renv": 8919,
      "traduction": 8920,
      "contrôles": 8921,
      "tun": 8922,
      "##conque": 8923,
      "massi": 8924,
      "tempéra": 8925,
      "inscription": 8926,
      "chiffres": 8927,
      "##onie": 8928,
      "approfon": 8929,
      "effor": 8930,
      "consoli": 8931,
      "vingt": 8932,
      "foi": 8933,
      "arrière": 8934,
      "dommages": 8935,
      "conci": 8936,
      "conserver": 8937,
      "certes": 8938,
      "##don": 8939,
      "poly": 8940,
      "##osoft": 8941,
      "bons": 8942,
      "circonstances": 8943,
      "papier": 8944,
      "annoncé": 8945,
      "amen": 8946,
      "recueil": 8947,
      "http": 8948,
      "##men": 8949,
      "discours": 8950,
      "##ives": 8951,
      "acte": 8952,
      "comportement": 8953,
      "phén": 8954,
      "ble": 8955,
      "remplir": 8956,
      "culturelle": 8957,
      "break": 8958,
      "huit": 8959,
      "%.": 8960,
      "optim": 8961,
      "alliance": 8962,
      "gouvern": 8963,
      "stade": 8964,
      "##pa": 8965,
      "reconnaiss": 8966,
      "institut": 8967,
      "clo": 8968,
      "appelé": 8969,
      "##ulé": 8970,
      "retard": 8971,
      "postes": 8972,
      "vais": 8973,
      "##agerie": 8974,
      "règle": 8975,
      "progressi": 8976,
      "inquiétu": 8977,
      "irak": 8978,
      "1997": 8979,
      "gla": 8980,
      "##inage": 8981,
      "défendre": 8982,
      "matériaux": 8983,
      "charte": 8984,
      "africa": 8985,
      "attirer": 8986,
      "destinés": 8987,
      "wal": 8988,
      "accus": 8989,
      "déte": 8990,
      "##ordi": 8991,
      "aime": 8992,
      "cam": 8993,
      "##chée": 8994,
      "privées": 8995,
      "pièce": 8996,
      "faudra": 8997,
      "cle": 8998,
      "neuf": 8999,
      "##wer": 9000,
      "domin": 9001,
      "##mn": 9002,
      "éché": 9003,
      "machines": 9004,
      "civil": 9005,
      "microsoft": 9006,
      "##atrice": 9007,
      "évidence": 9008,
      "disposi": 9009,
      "directe": 9010,
      "annuel": 9011,
      "offer": 9012,
      "##bation": 9013,
      "locale": 9014,
      "##lets": 9015,
      "récup": 9016,
      "php": 9017,
      "##df": 9018,
      "##son": 9019,
      "##by": 9020,
      "noms": 9021,
      "sti": 9022,
      "modes": 9023,
      "phénom": 9024,
      "intensi": 9025,
      "essayer": 9026,
      "patients": 9027,
      "rac": 9028,
      "honne": 9029,
      "virus": 9030,
      "##neurs": 9031,
      "pur": 9032,
      "proje": 9033,
      "stratégies": 9034,
      "##mises": 9035,
      "théâtre": 9036,
      "tenue": 9037,
      "irré": 9038,
      "préalable": 9039,
      "approvisionnement": 9040,
      "cost": 9041,
      "encontre": 9042,
      "portes": 9043,
      "cade": 9044,
      "##bu": 9045,
      "##tendu": 9046,
      "fortement": 9047,
      "infrastructure": 9048,
      "autrement": 9049,
      "##ley": 9050,
      "mobile": 9051,
      "proposés": 9052,
      "##fer": 9053,
      "##intes": 9054,
      "tendance": 9055,
      "##titution": 9056,
      "réjouis": 9057,
      "marke": 9058,
      "##dy": 9059,
      "enj": 9060,
      "##gies": 9061,
      "fréque": 9062,
      "proposons": 9063,
      "tâches": 9064,
      "mécanisme": 9065,
      "contrôler": 9066,
      "quotidien": 9067,
      "soutiens": 9068,
      "kos": 9069,
      "has": 9070,
      "regr": 9071,
      "##cieuse": 9072,
      "views": 9073,
      "##pir": 9074,
      "indépendant": 9075,
      "pes": 9076,
      "exercer": 9077,
      "amster": 9078,
      "intégrer": 9079,
      "américains": 9080,
      "apporte": 9081,
      "présentes": 9082,
      "rendez": 9083,
      "conservation": 9084,
      "vih": 9085,
      "organisé": 9086,
      "banques": 9087,
      "amsterdam": 9088,
      "fé": 9089,
      "demeure": 9090,
      "##cript": 9091,
      "télécomm": 9092,
      "noir": 9093,
      "vues": 9094,
      "##ya": 9095,
      "multiples": 9096,
      "##itées": 9097,
      "clos": 9098,
      "##isez": 9099,
      "lancé": 9100,
      "construit": 9101,
      "militaires": 9102,
      "efficacement": 9103,
      "dossiers": 9104,
      "mécanismes": 9105,
      "présents": 9106,
      "satisfaire": 9107,
      "rural": 9108,
      "puisqu": 9109,
      "##agé": 9110,
      "lux": 9111,
      "noter": 9112,
      "express": 9113,
      "blog": 9114,
      "grè": 9115,
      "##id": 9116,
      "gent": 9117,
      "tempor": 9118,
      "tar": 9119,
      "mét": 9120,
      "génération": 9121,
      "kilomètres": 9122,
      "inclure": 9123,
      "vins": 9124,
      "phar": 9125,
      "répert": 9126,
      "seig": 9127,
      "##mont": 9128,
      "forêts": 9129,
      "plaint": 9130,
      "spécialement": 9131,
      "##tront": 9132,
      "remarque": 9133,
      "ling": 9134,
      "##euses": 9135,
      "##fié": 9136,
      "##oute": 9137,
      "indépendance": 9138,
      "##ovo": 9139,
      "demi": 9140,
      "méditerrané": 9141,
      "interdiction": 9142,
      "supprimer": 9143,
      "##ruire": 9144,
      "illust": 9145,
      "desc": 9146,
      "pourrons": 9147,
      "##chées": 9148,
      "conclu": 9149,
      "erreurs": 9150,
      "out": 9151,
      "conférences": 9152,
      "soin": 9153,
      "vidéos": 9154,
      "exemples": 9155,
      "tôt": 9156,
      "bases": 9157,
      "##ann": 9158,
      "céré": 9159,
      "accueill": 9160,
      "berlin": 9161,
      "indiquer": 9162,
      "##cha": 9163,
      "films": 9164,
      "##ourir": 9165,
      "réflé": 9166,
      "armée": 9167,
      "##ware": 9168,
      "informatique": 9169,
      "familiale": 9170,
      "courriel": 9171,
      "actif": 9172,
      "ouvre": 9173,
      "imposer": 9174,
      "sanctions": 9175,
      "prochaines": 9176,
      "##rement": 9177,
      "bénéficie": 9178,
      "cultures": 9179,
      "##arch": 9180,
      "honneur": 9181,
      "taxe": 9182,
      "ventes": 9183,
      "trés": 9184,
      "établissements": 9185,
      "fondamental": 9186,
      "flux": 9187,
      "mex": 9188,
      "##roi": 9189,
      "derrière": 9190,
      "##éni": 9191,
      "##ortion": 9192,
      "extension": 9193,
      "bureaux": 9194,
      "parlé": 9195,
      "inaccep": 9196,
      "fabric": 9197,
      "décou": 9198,
      "prenez": 9199,
      "sortir": 9200,
      "structurels": 9201,
      "décrit": 9202,
      "élaborer": 9203,
      "commandes": 9204,
      "##viennent": 9205,
      "esc": 9206,
      "isol": 9207,
      "adapter": 9208,
      "##ko": 9209,
      "same": 9210,
      "reprises": 9211,
      "##enda": 9212,
      "rédi": 9213,
      "##charge": 9214,
      "jac": 9215,
      "tiss": 9216,
      "##anes": 9217,
      "##rovi": 9218,
      "réussite": 9219,
      "insuff": 9220,
      "délégation": 9221,
      "ele": 9222,
      "ing": 9223,
      "gouvernance": 9224,
      "essentielle": 9225,
      "##tise": 9226,
      "promen": 9227,
      "figure": 9228,
      "électr": 9229,
      "ea": 9230,
      "##cieuses": 9231,
      "##rend": 9232,
      "reflè": 9233,
      "engager": 9234,
      "reconnu": 9235,
      "supérieure": 9236,
      "moyennes": 9237,
      "humanitaire": 9238,
      "omc": 9239,
      "carrière": 9240,
      "identifier": 9241,
      "constituer": 9242,
      "découvrez": 9243,
      "audio": 9244,
      "fal": 9245,
      "33": 9246,
      "remarqu": 9247,
      "vendredi": 9248,
      "##érance": 9249,
      "évolu": 9250,
      "ambiti": 9251,
      "embar": 9252,
      "champs": 9253,
      "##bar": 9254,
      "travaillent": 9255,
      "personnelle": 9256,
      "##èques": 9257,
      "essentiellement": 9258,
      "démocrates": 9259,
      "monnaie": 9260,
      "auraient": 9261,
      "week": 9262,
      "avi": 9263,
      "hel": 9264,
      "souhaitons": 9265,
      "réalisés": 9266,
      "##time": 9267,
      "devenu": 9268,
      "goût": 9269,
      "métro": 9270,
      "##angé": 9271,
      "##tiers": 9272,
      "mm": 9273,
      "voire": 9274,
      "expliquer": 9275,
      "one": 9276,
      "classique": 9277,
      "vict": 9278,
      "sys": 9279,
      "aver": 9280,
      "##ili": 9281,
      "garanties": 9282,
      "typ": 9283,
      "interface": 9284,
      "chapitre": 9285,
      "consultez": 9286,
      "italien": 9287,
      "peau": 9288,
      "profon": 9289,
      "volume": 9290,
      "entraîner": 9291,
      "##ibles": 9292,
      "inuti": 9293,
      "##col": 9294,
      "alco": 9295,
      "utilisent": 9296,
      "hôtes": 9297,
      "places": 9298,
      "##liss": 9299,
      "souv": 9300,
      "réelle": 9301,
      "cycle": 9302,
      "loisir": 9303,
      "horaires": 9304,
      "##rets": 9305,
      "##érieurs": 9306,
      "cabine": 9307,
      "consens": 9308,
      "étrangers": 9309,
      "##ogues": 9310,
      "revenir": 9311,
      "devait": 9312,
      "critiques": 9313,
      "barcelone": 9314,
      "contenus": 9315,
      "construire": 9316,
      "exactement": 9317,
      "marketing": 9318,
      "basé": 9319,
      "pme": 9320,
      "réduit": 9321,
      "belles": 9322,
      "pacte": 9323,
      "maritime": 9324,
      "voc": 9325,
      "confortables": 9326,
      "pure": 9327,
      "réduite": 9328,
      "logique": 9329,
      "##mun": 9330,
      "hyper": 9331,
      "1996": 9332,
      "##gieux": 9333,
      "angle": 9334,
      "plages": 9335,
      "avais": 9336,
      "400": 9337,
      "expériment": 9338,
      "avoc": 9339,
      "libéralisation": 9340,
      "##aliers": 9341,
      "lecteur": 9342,
      "##tures": 9343,
      "hauteur": 9344,
      "maîtr": 9345,
      "sciences": 9346,
      "bient": 9347,
      "témoign": 9348,
      "##illets": 9349,
      "pouvait": 9350,
      "ascense": 9351,
      "souhaiterais": 9352,
      "moindre": 9353,
      "consommateur": 9354,
      "raff": 9355,
      "fun": 9356,
      "mérite": 9357,
      "signe": 9358,
      "périph": 9359,
      "considéré": 9360,
      "chances": 9361,
      "uns": 9362,
      "quelqu": 9363,
      "retrouver": 9364,
      "##érant": 9365,
      "calendrier": 9366,
      "##h30": 9367,
      "circu": 9368,
      "assi": 9369,
      "réfé": 9370,
      "ultra": 9371,
      "rappro": 9372,
      "négociation": 9373,
      "grèce": 9374,
      "division": 9375,
      "suivants": 9376,
      "donnent": 9377,
      "die": 9378,
      "##istant": 9379,
      "député": 9380,
      "climatisation": 9381,
      "vieille": 9382,
      "##tissement": 9383,
      "crédi": 9384,
      "compens": 9385,
      "invités": 9386,
      "labor": 9387,
      "versions": 9388,
      "récla": 9389,
      "intellig": 9390,
      "participé": 9391,
      "chercher": 9392,
      "##ick": 9393,
      "onu": 9394,
      "rassemb": 9395,
      "##caux": 9396,
      "cath": 9397,
      "trou": 9398,
      "donnée": 9399,
      "ger": 9400,
      "budgets": 9401,
      "##ght": 9402,
      "discip": 9403,
      "merve": 9404,
      "cad": 9405,
      "##mbourg": 9406,
      "eth": 9407,
      "excur": 9408,
      "considérer": 9409,
      "judiciaire": 9410,
      "considérable": 9411,
      "vaut": 9412,
      "##matiques": 9413,
      "souligne": 9414,
      "##néra": 9415,
      "best": 9416,
      "flexibilité": 9417,
      "spe": 9418,
      "fax": 9419,
      "ed": 9420,
      "##meu": 9421,
      "verts": 9422,
      "casino": 9423,
      "diman": 9424,
      "bur": 9425,
      "viennent": 9426,
      "serez": 9427,
      "##versaire": 9428,
      "obligatoire": 9429,
      "anni": 9430,
      "centaines": 9431,
      "fili": 9432,
      "vulnéra": 9433,
      "lead": 9434,
      "monu": 9435,
      "city": 9436,
      "automobile": 9437,
      "ast": 9438,
      "verre": 9439,
      "good": 9440,
      "dî": 9441,
      "breakfast": 9442,
      "effectué": 9443,
      "élevés": 9444,
      "intermédiaire": 9445,
      "viande": 9446,
      "bande": 9447,
      "##édi": 9448,
      "affect": 9449,
      "portugal": 9450,
      "finances": 9451,
      "essentiels": 9452,
      "paramètres": 9453,
      "bientôt": 9454,
      "destru": 9455,
      "presti": 9456,
      "mine": 9457,
      "épi": 9458,
      "précise": 9459,
      "ic": 9460,
      "manger": 9461,
      "performances": 9462,
      "froi": 9463,
      "lundi": 9464,
      "soutenu": 9465,
      "ferrovi": 9466,
      "perd": 9467,
      "jav": 9468,
      "concernés": 9469,
      "titres": 9470,
      "ib": 9471,
      "électroniques": 9472,
      "mol": 9473,
      "paiements": 9474,
      "réag": 9475,
      "transi": 9476,
      "pointe": 9477,
      "développé": 9478,
      "##éros": 9479,
      "##ns": 9480,
      "parlementaires": 9481,
      "##ras": 9482,
      "quin": 9483,
      "mac": 9484,
      "liqui": 9485,
      "apprécier": 9486,
      "authent": 9487,
      "sauna": 9488,
      "destiné": 9489,
      "pom": 9490,
      "[[": 9491,
      "fant": 9492,
      "restent": 9493,
      "mère": 9494,
      "seigneur": 9495,
      "ryth": 9496,
      "fonctionner": 9497,
      "bor": 9498,
      "travaillé": 9499,
      "confidenti": 9500,
      "sentiment": 9501,
      "courrier": 9502,
      "coin": 9503,
      "perdu": 9504,
      "video": 9505,
      "##prise": 9506,
      "belgique": 9507,
      "budgétaires": 9508,
      "##atie": 9509,
      "planète": 9510,
      "concentrer": 9511,
      "##lines": 9512,
      "ajout": 9513,
      "jeunesse": 9514,
      "##oriz": 9515,
      "crimi": 9516,
      "avancer": 9517,
      "joli": 9518,
      "rejoindre": 9519,
      "kosovo": 9520,
      "disposons": 9521,
      "catégories": 9522,
      "##nu": 9523,
      "entretien": 9524,
      "panne": 9525,
      "afgh": 9526,
      "soumettre": 9527,
      "attentes": 9528,
      "tol": 9529,
      "appl": 9530,
      "prévue": 9531,
      "pension": 9532,
      "espaces": 9533,
      "##asser": 9534,
      "future": 9535,
      "suivantes": 9536,
      "##rs": 9537,
      "##10": 9538,
      "différences": 9539,
      "##ome": 9540,
      "agenda": 9541,
      "finale": 9542,
      "interprétation": 9543,
      "##rési": 9544,
      "relax": 9545,
      "approbation": 9546,
      "écl": 9547,
      "hyd": 9548,
      "obstacles": 9549,
      "éth": 9550,
      "bibliothèque": 9551,
      "cos": 9552,
      "adultes": 9553,
      "intérieure": 9554,
      "réflexion": 9555,
      "réserver": 9556,
      "donnant": 9557,
      "xi": 9558,
      "paquets": 9559,
      "##ted": 9560,
      "dédi": 9561,
      "##cia": 9562,
      "##//": 9563,
      "navigation": 9564,
      "naturelle": 9565,
      "boutique": 9566,
      "##terie": 9567,
      "harmonisation": 9568,
      "occupe": 9569,
      "américaine": 9570,
      "extraord": 9571,
      "etat": 9572,
      "baisse": 9573,
      "sida": 9574,
      "souhaitent": 9575,
      "démocratiques": 9576,
      "fédéral": 9577,
      "visa": 9578,
      "plas": 9579,
      "allez": 9580,
      "consensus": 9581,
      "##çon": 9582,
      "##yc": 9583,
      "mondialisation": 9584,
      "amnes": 9585,
      "##ding": 9586,
      "##chage": 9587,
      "##tière": 9588,
      "avent": 9589,
      "sév": 9590,
      "diplô": 9591,
      "bless": 9592,
      "billets": 9593,
      "intéressant": 9594,
      "interventions": 9595,
      "psy": 9596,
      "sing": 9597,
      "confidentialité": 9598,
      "##onique": 9599,
      "free": 9600,
      "amnesty": 9601,
      "iv": 9602,
      "##ôts": 9603,
      "migra": 9604,
      "passant": 9605,
      "##istré": 9606,
      "équipes": 9607,
      "##ute": 9608,
      "choc": 9609,
      "##érap": 9610,
      "associés": 9611,
      "lang": 9612,
      "##olue": 9613,
      "faudrait": 9614,
      "rembour": 9615,
      "staff": 9616,
      "##bilisation": 9617,
      "hi": 9618,
      "pilo": 9619,
      "studio": 9620,
      "##los": 9621,
      "##hou": 9622,
      "##olique": 9623,
      "our": 9624,
      "soutient": 9625,
      "chinois": 9626,
      "contenant": 9627,
      "souver": 9628,
      "apparaît": 9629,
      "##imité": 9630,
      "chiffre": 9631,
      "ignor": 9632,
      "actifs": 9633,
      "demandons": 9634,
      "menac": 9635,
      "##érité": 9636,
      "régionales": 9637,
      "accessibles": 9638,
      "logement": 9639,
      "îles": 9640,
      "hausse": 9641,
      "télécommuni": 9642,
      "##bert": 9643,
      "satisfaction": 9644,
      "sugges": 9645,
      "terminer": 9646,
      "exclusivement": 9647,
      "prévenir": 9648,
      "admissi": 9649,
      "explique": 9650,
      "://": 9651,
      "##adé": 9652,
      "verbal": 9653,
      "sèche": 9654,
      "##isée": 9655,
      "dépos": 9656,
      "équitable": 9657,
      "londres": 9658,
      "##itons": 9659,
      "paroles": 9660,
      "##oyer": 9661,
      "nettoyage": 9662,
      "##illon": 9663,
      "colomb": 9664,
      "faute": 9665,
      "02": 9666,
      "##ciers": 9667,
      "vivent": 9668,
      "signé": 9669,
      "roumanie": 9670,
      "syndi": 9671,
      "laisse": 9672,
      "canadiennes": 9673,
      "##ally": 9674,
      "spir": 9675,
      "pacifique": 9676,
      "48": 9677,
      "##way": 9678,
      "préserver": 9679,
      "bâtiments": 9680,
      "john": 9681,
      "nat": 9682,
      "##ogle": 9683,
      "ine": 9684,
      "actuelles": 9685,
      "fournisseur": 9686,
      "horiz": 9687,
      "vra": 9688,
      "touristiques": 9689,
      "factur": 9690,
      "clin": 9691,
      "basée": 9692,
      "prennent": 9693,
      "##ombe": 9694,
      "thèmes": 9695,
      "actuels": 9696,
      "offrons": 9697,
      "cib": 9698,
      "approuvé": 9699,
      "recommandation": 9700,
      "énorme": 9701,
      "étapes": 9702,
      "pack": 9703,
      "rendement": 9704,
      "prosp": 9705,
      "##ielles": 9706,
      "rang": 9707,
      "entam": 9708,
      "hautes": 9709,
      "##sons": 9710,
      "##gements": 9711,
      "800": 9712,
      "pieds": 9713,
      ".-": 9714,
      "##40": 9715,
      "historiques": 9716,
      "ukraine": 9717,
      "bla": 9718,
      "tests": 9719,
      "composé": 9720,
      "quatri": 9721,
      "maroc": 9722,
      "relever": 9723,
      "##sé": 9724,
      "##osoph": 9725,
      "##att": 9726,
      "difficiles": 9727,
      "souvenir": 9728,
      "privés": 9729,
      "google": 9730,
      "paul": 9731,
      "virtue": 9732,
      "ko": 9733,
      "voisins": 9734,
      "orientation": 9735,
      "magasins": 9736,
      "accr": 9737,
      "abus": 9738,
      "war": 9739,
      "1995": 9740,
      "ev": 9741,
      "oly": 9742,
      "have": 9743,
      "susp": 9744,
      "variété": 9745,
      "soyez": 9746,
      "gast": 9747,
      "étage": 9748,
      "propriétaire": 9749,
      "crimin": 9750,
      "inscrire": 9751,
      "rh": 9752,
      "rencontrer": 9753,
      "jés": 9754,
      "150": 9755,
      "##iler": 9756,
      "##judi": 9757,
      "syste": 9758,
      "journaux": 9759,
      "spéciale": 9760,
      "personnellement": 9761,
      "contrats": 9762,
      "ascenseur": 9763,
      "excelle": 9764,
      "chargé": 9765,
      "territoires": 9766,
      "quatrième": 9767,
      "olymp": 9768,
      "fid": 9769,
      "associations": 9770,
      "sugg": 9771,
      "stre": 9772,
      "fiscale": 9773,
      "mén": 9774,
      "##èdent": 9775,
      "spirit": 9776,
      "afficher": 9777,
      "expertise": 9778,
      "##ette": 9779,
      "philosoph": 9780,
      "voyages": 9781,
      "##haus": 9782,
      "modalités": 9783,
      "los": 9784,
      "emball": 9785,
      "dimanche": 9786,
      "##iness": 9787,
      "park": 9788,
      "enter": 9789,
      "catal": 9790,
      "acti": 9791,
      "restrictions": 9792,
      "introduire": 9793,
      "##mante": 9794,
      "fraude": 9795,
      "améliorations": 9796,
      "adresser": 9797,
      "émer": 9798,
      "cesse": 9799,
      "endroits": 9800,
      "interg": 9801,
      "las": 9802,
      "auteurs": 9803,
      "transfront": 9804,
      "inspi": 9805,
      "frapp": 9806,
      "autri": 9807,
      "##osse": 9808,
      "perdre": 9809,
      "lancement": 9810,
      "transmission": 9811,
      "oppos": 9812,
      "taxes": 9813,
      "installé": 9814,
      "découverte": 9815,
      "accompli": 9816,
      "intit": 9817,
      "your": 9818,
      "appels": 9819,
      "intervenir": 9820,
      "brési": 9821,
      "##tawa": 9822,
      "issue": 9823,
      "auberge": 9824,
      "industrielle": 9825,
      "présentent": 9826,
      "concert": 9827,
      "systém": 9828,
      "régimes": 9829,
      "##lantique": 9830,
      "nourrit": 9831,
      "choisissez": 9832,
      "mater": 9833,
      "##ctées": 9834,
      "destinées": 9835,
      "beaux": 9836,
      "département": 9837,
      "fas": 9838,
      "##cateurs": 9839,
      "coûte": 9840,
      "représentation": 9841,
      "austra": 9842,
      "##tablement": 9843,
      "agissant": 9844,
      "##tienne": 9845,
      "utiles": 9846,
      "rappelle": 9847,
      "accepté": 9848,
      "wifi": 9849,
      "surp": 9850,
      "sémin": 9851,
      "pologne": 9852,
[...]
